▁xxunk	0
▁xxpad	0
▁xxbos	0
▁xxeos	0
▁xxfld	0
▁xxmaj	0
▁xxup	0
▁xxrep	0
▁xxwrep	0
<unk>	0
▁	-2.01406
,	-3.21163
▁de	-3.30401
s	-3.69718
.	-3.72621
▁a	-3.78599
▁e	-3.97212
▁o	-4.08962
▁em	-4.35951
▁do	-4.50968
▁da	-4.58035
▁que	-4.70838
-	-4.9525
▁no	-5.05711
▁com	-5.05811
▁um	-5.09168
▁"	-5.10645
▁para	-5.13198
▁na	-5.21865
▁uma	-5.2475
▁foi	-5.36375
"	-5.36978
▁é	-5.41351
▁por	-5.46741
▁os	-5.54701
▁(	-5.54935
r	-5.55782
▁como	-5.58554
a	-5.66401
se	-5.72392
m	-5.74428
o	-5.76907
▁se	-5.9107
▁sua	-5.96391
▁ao	-6.00129
▁dos	-6.00239
▁as	-6.03042
▁mais	-6.08793
▁seu	-6.09215
do	-6.10431
da	-6.11591
)	-6.13407
:	-6.29386
▁não	-6.29883
u	-6.30455
▁são	-6.37818
e	-6.396
",	-6.4145
ndo	-6.44404
▁à	-6.45987
▁também	-6.4844
▁pela	-6.50433
▁ele	-6.50981
▁pelo	-6.54556
▁ou	-6.5912
▁das	-6.60155
▁ser	-6.60972
t	-6.62514
),	-6.67296
l	-6.68751
▁entre	-6.68809
i	-6.75005
n	-6.77697
c	-6.82598
▁mas	-6.83012
▁anos	-6.83964
va	-6.87179
ta	-6.89372
".	-6.91518
ção	-6.91558
▁era	-6.96079
de	-6.99915
es	-7.01222
d	-7.01899
▁foram	-7.02362
ram	-7.03801
).	-7.03964
▁até	-7.04635
ra	-7.053
na	-7.06798
▁quando	-7.08378
▁re	-7.09128
te	-7.09989
▁onde	-7.11197
▁seus	-7.11491
la	-7.13013
lo	-7.13514
;	-7.15717
▁sobre	-7.17594
▁depois	-7.17745
to	-7.18589
mente	-7.19771
▁/	-7.20029
▁após	-7.20241
▁durante	-7.21302
▁ano	-7.22074
▁primeiro	-7.25727
▁cidade	-7.25741
dos	-7.25894
ia	-7.27451
y	-7.27491
▁grande	-7.2799
is	-7.28191
▁tem	-7.28253
▁nos	-7.28894
b	-7.30548
p	-7.30747
▁primeira	-7.32877
ma	-7.33282
▁mesmo	-7.33534
▁ela	-7.33711
ro	-7.34084
no	-7.3409
▁sendo	-7.3515
▁parte	-7.38301
das	-7.38698
ne	-7.39065
▁dois	-7.39326
g	-7.40403
le	-7.41253
'	-7.41463
ca	-7.41587
em	-7.42385
co	-7.44698
▁ainda	-7.44897
▁dia	-7.45465
▁in	-7.47858
▁1	-7.48098
▁nas	-7.48306
ções	-7.48949
▁já	-7.49543
▁outros	-7.50607
▁suas	-7.5072
▁brasil	-7.52576
▁nome	-7.53535
z	-7.5575
k	-7.55895
▁contra	-7.56029
▁aos	-7.57242
ou	-7.5747
am	-7.57503
que	-7.57623
▁pode	-7.58559
▁esta	-7.60469
f	-7.60481
h	-7.60759
▁rio	-7.61229
▁está	-7.61669
▁estado	-7.6246
▁este	-7.6459
▁segundo	-7.64775
▁muito	-7.65077
▁ter	-7.65535
▁forma	-7.65676
▁grupo	-7.65837
os	-7.66332
▁então	-7.66337
▁três	-7.66805
re	-7.68235
▁janeiro	-7.68322
▁apenas	-7.69815
ar	-7.70036
sa	-7.71253
▁além	-7.71406
▁vez	-7.71728
x	-7.72332
▁2	-7.72785
ga	-7.73515
me	-7.74828
▁final	-7.75967
▁série	-7.76113
ve	-7.76264
▁tempo	-7.76838
▁maior	-7.76842
di	-7.77015
v	-7.77491
▁desde	-7.77544
ni	-7.78042
▁nova	-7.78383
in	-7.7895
▁assim	-7.79168
▁duas	-7.7941
ria	-7.79903
▁3	-7.8058
▁álbum	-7.80681
▁sul	-7.80916
ce	-7.81806
▁filme	-7.82367
▁18	-7.83727
er	-7.84358
▁qual	-7.86154
pa	-7.86948
res	-7.8718
á	-7.87817
al	-7.8782
▁the	-7.88274
▁todos	-7.88345
▁sido	-7.88637
▁co	-7.88653
▁teve	-7.88752
▁paulo	-7.90275
as	-7.91467
▁banda	-7.91666
▁sem	-7.91813
nte	-7.9219
▁4	-7.92884
▁alguns	-7.93609
ge	-7.93637
go	-7.93669
▁música	-7.9387
▁ex	-7.93896
▁guerra	-7.94524
ri	-7.95257
▁nacional	-7.9609
▁17	-7.96276
▁casa	-7.96413
▁história	-7.9736
▁região	-7.97492
▁partir	-7.9808
mo	-7.98104
▁cada	-7.98148
▁norte	-7.98221
▁vida	-7.98257
pe	-7.99178
▁mundo	-7.99191
▁antes	-7.99217
▁outras	-7.99768
ba	-8.00017
▁15	-8.00148
▁eles	-8.01197
▁bem	-8.01328
▁novo	-8.01653
▁tinha	-8.02084
w	-8.02415
vi	-8.02785
▁enquanto	-8.03191
man	-8.03194
▁estados	-8.03444
▁pelos	-8.04302
▁governo	-8.04364
ado	-8.04365
▁filho	-8.04872
the	-8.05401
mi	-8.05473
▁d	-8.05835
en	-8.05931
li	-8.06237
▁con	-8.07263
be	-8.0735
ter	-8.07368
ti	-8.07392
▁fez	-8.07722
▁la	-8.08034
▁tendo	-8.08128
▁pro	-8.08191
▁família	-8.08247
▁época	-8.09161
▁10	-8.09173
▁5	-8.09426
on	-8.10078
▁através	-8.10104
▁sob	-8.10685
▁século	-8.11031
▁“	-8.11521
▁segunda	-8.12216
▁estava	-8.12363
▁16	-8.12476
us	-8.12654
▁tornou	-8.12767
so	-8.14191
▁trabalho	-8.14269
▁jogo	-8.14376
▁às	-8.14738
▁ca	-8.15222
▁universidade	-8.15544
▁melhor	-8.15561
▁sistema	-8.16352
▁vários	-8.16803
▁mar	-8.1684
▁país	-8.17102
▁of	-8.17208
ão	-8.17428
▁há	-8.18257
▁isso	-8.18801
idade	-8.18851
▁igreja	-8.19458
▁quatro	-8.199
▁lugar	-8.20347
▁maio	-8.20384
▁outubro	-8.20625
▁pessoas	-8.21004
ver	-8.21262
▁vezes	-8.21344
▁programa	-8.21385
▁devido	-8.21773
ada	-8.2235
▁unidos	-8.22391
▁conhecido	-8.23227
▁setembro	-8.23584
▁("	-8.23629
▁número	-8.23808
▁clube	-8.23884
▁abril	-8.24034
vam	-8.24142
▁dezembro	-8.2427
ismo	-8.24442
▁março	-8.24473
▁julho	-8.24654
▁começou	-8.24729
ci	-8.24824
▁início	-8.24835
▁brasileiro	-8.2511
▁passou	-8.25335
▁ma	-8.25468
▁temporada	-8.25625
▁junho	-8.25757
dor	-8.26031
▁área	-8.26039
el	-8.26477
▁12	-8.26767
▁podem	-8.26841
▁pai	-8.26873
▁ba	-8.26982
▁morte	-8.27326
▁presidente	-8.27345
▁pa	-8.28354
▁agosto	-8.28462
▁outro	-8.28484
▁novembro	-8.28833
▁cerca	-8.2887
▁i	-8.29367
▁principal	-8.29514
▁período	-8.29628
ck	-8.29742
mento	-8.30076
▁local	-8.30231
▁rei	-8.30335
í	-8.31956
▁mo	-8.31983
▁lançado	-8.32521
vo	-8.32531
▁havia	-8.32751
bo	-8.3328
▁di	-8.3343
po	-8.33654
▁formula	-8.33689
tu	-8.33794
▁joão	-8.33935
▁eram	-8.34377
▁me	-8.34702
ja	-8.3484
▁centro	-8.34857
▁volta	-8.34885
▁conta	-8.3495
▁algumas	-8.35061
▁título	-8.35114
▁sub	-8.35388
é	-8.35773
▁tarde	-8.35808
▁maria	-8.35837
an	-8.35963
▁escola	-8.35966
▁""	-8.36368
ista	-8.3647
▁lado	-8.36735
▁equipe	-8.36864
▁6	-8.36939
▁várias	-8.37118
fa	-8.37285
ka	-8.37341
▁14	-8.37445
▁pre	-8.37851
▁josé	-8.38303
▁(19	-8.38395
▁todo	-8.3886
▁meio	-8.39267
ir	-8.39519
mar	-8.39613
▁su	-8.3973
▁estão	-8.40111
▁carreira	-8.40296
▁acordo	-8.40417
▁muitos	-8.40686
▁município	-8.40779
um	-8.40781
▁porém	-8.40944
▁seguinte	-8.41238
com	-8.41303
ntes	-8.41346
▁–	-8.41591
ões	-8.42023
2	-8.42442
▁só	-8.42508
▁al	-8.42558
▁campeonato	-8.42581
▁fevereiro	-8.42674
th	-8.42836
▁si	-8.42889
▁7	-8.43081
tra	-8.43083
▁cor	-8.4322
▁mundial	-8.4349
▁numa	-8.44118
▁possui	-8.44258
▁apesar	-8.4493
▁recebeu	-8.45055
▁embora	-8.45214
▁11	-8.45265
▁num	-8.4549
▁fim	-8.45651
▁canção	-8.45757
▁entanto	-8.45785
▁mil	-8.4628
ing	-8.46379
▁8	-8.46655
ton	-8.46859
▁sa	-8.47008
▁chamado	-8.47118
ch	-8.47317
mor	-8.47489
za	-8.47635
per	-8.47772
▁13	-8.47832
gi	-8.4798
▁ar	-8.48123
▁base	-8.48134
br	-8.48292
▁portugal	-8.48512
▁exemplo	-8.48554
▁livro	-8.4893
mos	-8.49291
▁todas	-8.49337
▁sucesso	-8.49383
▁jogos	-8.49398
▁dias	-8.49871
▁década	-8.49923
j	-8.49928
▁fazer	-8.50005
▁hoje	-8.50062
▁futebol	-8.50088
ry	-8.50372
▁20	-8.50372
▁produção	-8.51372
▁empresa	-8.51438
ita	-8.51711
▁projeto	-8.52499
sse	-8.52653
▁brasileira	-8.52764
▁essa	-8.52884
▁internacional	-8.52968
▁c	-8.53728
ação	-8.53817
ke	-8.54216
▁pouco	-8.54578
1	-8.54588
▁b	-8.54597
bi	-8.54811
")	-8.55027
fe	-8.55046
▁versão	-8.5511
▁lei	-8.55273
▁esse	-8.55324
son	-8.55667
▁muitas	-8.55707
st	-8.56091
▁pois	-8.56606
dia	-8.56944
▁seja	-8.57328
il	-8.57433
▁atualmente	-8.57813
▁en	-8.57818
▁santa	-8.58181
du	-8.58282
▁fa	-8.58484
▁mesma	-8.58496
▁terra	-8.58632
▁seria	-8.59146
▁público	-8.59152
▁cinco	-8.59187
▁9	-8.59944
▁obra	-8.59949
▁caso	-8.60511
▁rede	-8.60578
▁ha	-8.60639
ber	-8.61126
lhe	-8.61263
▁longo	-8.61541
▁desenvolvimento	-8.61629
”	-8.61786
▁reino	-8.62062
▁outra	-8.62523
▁real	-8.63187
▁menos	-8.63402
▁exército	-8.63403
▁ficou	-8.63762
▁geral	-8.64307
tar	-8.64376
pi	-8.64601
▁grandes	-8.65043
▁sempre	-8.65067
▁logo	-8.65112
▁li	-8.65229
▁ii	-8.65651
▁principais	-8.66102
▁qualquer	-8.66125
▁federal	-8.6613
▁direito	-8.66395
ina	-8.66686
▁ordem	-8.66839
▁uso	-8.66875
▁processo	-8.67131
▁porto	-8.67252
▁desta	-8.67525
▁países	-8.6765
tor	-8.67728
fi	-8.67838
gu	-8.67995
▁papel	-8.68262
▁junto	-8.68501
▁per	-8.68551
cu	-8.68804
▁construção	-8.68838
▁capital	-8.68995
▁milhões	-8.69089
▁militar	-8.69123
▁fora	-8.6914
▁obras	-8.69269
▁partido	-8.69316
▁incluindo	-8.69669
▁toda	-8.69912
▁população	-8.70183
3	-8.70397
sh	-8.70525
tas	-8.7067
▁le	-8.70699
dores	-8.70714
ten	-8.71183
▁disso	-8.71345
tos	-8.71776
▁be	-8.7199
▁bo	-8.72196
▁pe	-8.72845
sta	-8.7296
qui	-8.7305
▁linha	-8.7341
der	-8.73619
▁maioria	-8.73625
rá	-8.73757
ú	-8.73928
▁posição	-8.73995
▁poder	-8.74006
con	-8.74211
ed	-8.74469
▁vi	-8.74507
cha	-8.7457
▁campo	-8.74691
▁tipo	-8.74755
▁política	-8.74795
▁conhecida	-8.74871
che	-8.75078
▁30	-8.7512
▁quais	-8.75213
▁car	-8.75351
rem	-8.75719
▁oficial	-8.75721
▁dentro	-8.75826
▁for	-8.75917
rio	-8.76374
%	-8.76484
ó	-8.7664
▁diferentes	-8.76673
▁faz	-8.76918
▁edição	-8.76925
les	-8.7725
▁filha	-8.77638
▁carlos	-8.77669
cia	-8.77845
▁ka	-8.78408
são	-8.78609
or	-8.78739
▁quase	-8.79059
▁frança	-8.7907
▁social	-8.79092
▁tanto	-8.79093
bra	-8.79303
▁importante	-8.79572
▁relação	-8.79599
▁membros	-8.79915
▁km	-8.79971
▁luta	-8.7998
▁água	-8.80029
5	-8.80172
▁pi	-8.8068
via	-8.8071
(	-8.8075
je	-8.80757
▁último	-8.80924
▁conjunto	-8.80936
▁força	-8.8098
▁vila	-8.81131
lin	-8.81489
▁tal	-8.81531
ha	-8.81541
▁fase	-8.81559
▁corpo	-8.81731
ko	-8.81739
▁mãe	-8.81852
▁copa	-8.82036
▁tv	-8.82494
▁fi	-8.82521
▁arte	-8.83028
▁origem	-8.83051
por	-8.83582
los	-8.83618
▁movimento	-8.83652
▁novamente	-8.83669
ização	-8.83774
▁deste	-8.83889
▁próprio	-8.84176
ly	-8.84271
▁chamada	-8.84426
▁têm	-8.84518
>	-8.84654
▁neste	-8.84898
▁and	-8.85344
pre	-8.85392
▁central	-8.85592
▁ver	-8.8578
6	-8.85808
▁disco	-8.85842
▁liga	-8.85863
▁original	-8.85896
▁sol	-8.86005
lu	-8.86477
▁diversos	-8.86765
▁—	-8.87175
▁chegou	-8.87204
▁américa	-8.87844
▁25	-8.87923
▁ponto	-8.88407
▁total	-8.88721
eu	-8.88764
ino	-8.88811
▁diversas	-8.88983
▁principalmente	-8.89078
ki	-8.89209
▁vitória	-8.89269
▁ja	-8.89307
▁lançamento	-8.89314
▁membro	-8.89371
car	-8.89498
ll	-8.89549
si	-8.89689
4	-8.89777
io	-8.898
▁nasceu	-8.89834
▁pedro	-8.89931
ça	-8.90105
▁república	-8.90225
▁ilha	-8.90301
▁sociedade	-8.90692
▁deve	-8.90815
▁único	-8.90855
▁pontos	-8.90916
▁lu	-8.90939
▁batalha	-8.91117
▁encontra	-8.91124
▁pelas	-8.91165
▁televisão	-8.91255
▁super	-8.9132
▁eleito	-8.91526
▁filhos	-8.91805
▁inter	-8.91814
chi	-8.91917
▁atual	-8.92045
▁causa	-8.92058
▁seis	-8.92125
▁can	-8.92216
▁idade	-8.92281
ço	-8.92403
▁san	-8.92478
▁estudos	-8.926
▁professor	-8.92606
it	-8.92789
tivo	-8.92902
▁primeiros	-8.92985
▁portuguesa	-8.93051
▁lisboa	-8.93111
▁quem	-8.93209
▁cinema	-8.93459
▁europa	-8.93919
▁português	-8.94052
sen	-8.94063
▁musical	-8.94115
▁teatro	-8.94255
▁cargo	-8.94259
▁vice	-8.94331
ine	-8.94383
▁divisão	-8.94585
▁he	-8.94778
▁meses	-8.94788
▁participou	-8.94928
▁revista	-8.9511
▁posteriormente	-8.9513
▁popular	-8.95172
▁estilo	-8.95208
▁f	-8.95293
wa	-8.95317
▁cultura	-8.95348
▁personagem	-8.95848
▁feito	-8.96147
▁ouro	-8.96572
▁du	-8.968
ya	-8.96823
▁time	-8.96854
▁terceiro	-8.96911
den	-8.97011
▁considerado	-8.97344
▁ga	-8.97546
▁mi	-8.97575
tes	-8.97752
▁homem	-8.97839
▁criação	-8.97985
0	-8.98123
▁metros	-8.98278
▁francisco	-8.98497
8	-8.98534
ley	-8.98635
▁jogador	-8.98679
land	-8.98762
▁24	-8.98783
▁frente	-8.98997
zi	-8.99301
""	-8.99354
▁irmão	-8.99549
▁diretor	-8.99584
▁serviço	-8.99604
ze	-8.9963
▁espaço	-8.99634
ad	-8.9967
▁sede	-8.99814
▁geralmente	-9.00109
▁ganhou	-9.00186
▁distrito	-9.00213
▁mal	-9.00437
▁disse	-9.00564
des	-9.00692
istas	-9.00809
▁língua	-9.00811
▁nomeado	-9.00816
▁bar	-9.00946
▁tra	-9.0149
nce	-9.01556
tou	-9.01957
▁21	-9.0203
cos	-9.02145
nha	-9.02219
▁conseguiu	-9.0231
▁especial	-9.0268
▁média	-9.02721
▁19	-9.02728
▁companhia	-9.02729
▁costa	-9.02857
cas	-9.02858
7	-9.02875
▁quanto	-9.0293
ur	-9.03151
ty	-9.03156
▁estrutura	-9.0317
▁mu	-9.03213
lha	-9.03393
▁conselho	-9.03445
▁superior	-9.03524
▁formação	-9.03696
▁última	-9.03711
▁termo	-9.03788
▁museu	-9.03822
▁modo	-9.03835
mer	-9.03866
▁bairro	-9.04067
▁22	-9.04108
▁to	-9.04132
ul	-9.04217
amento	-9.04316
▁john	-9.04456
▁sal	-9.04512
ário	-9.04573
ng	-9.04639
▁lista	-9.04853
▁fato	-9.04879
ando	-9.0494
ster	-9.05174
▁união	-9.05238
hi	-9.05238
▁g	-9.05391
▁santo	-9.05861
▁ali	-9.05902
▁cal	-9.05909
id	-9.05941
▁antigo	-9.06213
cer	-9.06337
▁jovem	-9.06349
▁municipal	-9.06361
tiva	-9.06402
gar	-9.06424
▁mulher	-9.06573
▁instituto	-9.06614
▁autor	-9.06636
▁nesse	-9.06645
▁maiores	-9.06651
▁única	-9.06829
tão	-9.06953
▁possível	-9.07084
▁lhe	-9.07085
▁po	-9.07124
fo	-9.07138
cho	-9.07248
▁inglês	-9.07461
mas	-9.07558
las	-9.07769
▁morreu	-9.07816
▁man	-9.07843
▁bi	-9.07977
ana	-9.08223
▁canal	-9.08297
▁trans	-9.08298
ie	-9.08444
▁usado	-9.08506
▁prêmio	-9.08555
▁porque	-9.0869
▁forte	-9.08713
▁nesta	-9.08719
▁nível	-9.08726
▁momento	-9.08755
▁câmara	-9.08769
▁rádio	-9.08967
▁interior	-9.08996
▁episódio	-9.09168
▁lançou	-9.09516
▁ambos	-9.09585
ex	-9.0962
▁passa	-9.09748
▁própria	-9.09781
▁império	-9.09862
▁antiga	-9.1024
▁her	-9.10343
▁bu	-9.10443
▁data	-9.10586
▁função	-9.10656
"),	-9.10679
eira	-9.10692
▁filmes	-9.10711
im	-9.10838
ho	-9.10898
▁ensino	-9.10913
ência	-9.11131
▁estação	-9.11147
▁participação	-9.11221
jo	-9.11277
▁cruz	-9.11277
▁criado	-9.1167
ven	-9.11692
nos	-9.11774
▁alemanha	-9.11801
tura	-9.11903
▁paris	-9.12006
bri	-9.12061
▁v	-9.12129
bre	-9.1232
ira	-9.12412
ados	-9.12456
▁esposa	-9.12799
zo	-9.1287
▁acabou	-9.12884
ler	-9.1298
▁pu	-9.13011
▁agora	-9.13277
▁educação	-9.13286
▁so	-9.13364
▁nunca	-9.13541
▁mercado	-9.13562
▁modelo	-9.13628
nt	-9.13752
▁rock	-9.13792
▁organização	-9.13849
▁23	-9.13889
▁apresenta	-9.13934
▁homens	-9.14092
▁k	-9.14285
▁seguida	-9.14378
▁alta	-9.14423
▁vale	-9.14682
▁grupos	-9.14713
bu	-9.14824
▁direção	-9.14831
▁vai	-9.14856
▁alto	-9.14862
▁mulheres	-9.15
▁estavam	-9.15005
gue	-9.15316
▁forças	-9.15339
▁somente	-9.1554
lí	-9.15794
et	-9.15831
▁imperador	-9.15833
adas	-9.15971
▁território	-9.16082
▁ajuda	-9.16163
▁marca	-9.16252
▁apoio	-9.16416
9	-9.1647
▁x	-9.16525
▁político	-9.16739
ré	-9.16788
▁áreas	-9.16807
▁governador	-9.16837
▁resultado	-9.16925
tion	-9.17048
▁roma	-9.17059
▁estadual	-9.1706
▁valor	-9.17158
▁dados	-9.17174
tá	-9.17306
▁disputa	-9.17396
tro	-9.174
ji	-9.17733
▁problemas	-9.17895
▁terceira	-9.17923
▁show	-9.18079
▁papa	-9.18254
▁estes	-9.18298
▁tri	-9.18405
lar	-9.18417
gra	-9.18505
pro	-9.18609
▁ru	-9.18621
▁sete	-9.18726
▁pessoa	-9.18816
gem	-9.18916
°	-9.18917
▁lá	-9.19017
▁civil	-9.19051
▁controle	-9.191
▁p	-9.19182
$	-9.19199
▁existem	-9.19294
ner	-9.19302
▁ju	-9.1947
para	-9.19535
qua	-9.19617
▁eu	-9.19621
▁solo	-9.19655
▁rua	-9.19711
by	-9.199
▁seguintes	-9.19998
▁profissional	-9.20001
▁jornal	-9.20139
▁significa	-9.20178
▁hi	-9.20273
ável	-9.20465
tado	-9.20627
▁fica	-9.20695
▁28	-9.20744
▁acesso	-9.21259
ku	-9.21261
▁comum	-9.21461
▁boa	-9.21507
xi	-9.21629
ida	-9.21762
▁festival	-9.21776
men	-9.21789
▁100	-9.21804
mp	-9.21913
▁26	-9.22023
tal	-9.22091
▁criada	-9.2236
▁habitantes	-9.22395
▁seleção	-9.22463
▁deixou	-9.22599
-19	-9.22746
rou	-9.2287
ic	-9.22945
▁campanha	-9.22992
▁auto	-9.23315
▁diz	-9.23647
▁juntamente	-9.23663
▁silva	-9.23681
▁contrato	-9.237
ido	-9.23832
▁noite	-9.23998
!	-9.24108
nu	-9.24143
▁fu	-9.24146
mon	-9.24163
▁iniciou	-9.24183
▁saúde	-9.2423
▁palácio	-9.24327
▁novos	-9.24407
▁tais	-9.24442
▁vídeo	-9.24458
▁serviços	-9.24563
▁santos	-9.24564
▁isto	-9.24603
▁espécies	-9.24734
▁livre	-9.25041
at	-9.25092
▁importantes	-9.25164
uma	-9.25183
ju	-9.25267
▁começa	-9.25346
▁energia	-9.25346
▁voltou	-9.25533
▁casamento	-9.25694
fer	-9.2578
▁vivo	-9.26014
]	-9.26046
▁itália	-9.26053
min	-9.26153
▁27	-9.26237
ras	-9.2625
▁será	-9.26282
ê	-9.26354
▁amor	-9.26364
izado	-9.26463
bel	-9.26535
▁locais	-9.26618
▁natural	-9.26807
▁fazendo	-9.26926
▁altura	-9.26932
▁ho	-9.26979
▁teria	-9.26987
▁comando	-9.2734
▁go	-9.27402
▁escreveu	-9.27407
▁conde	-9.27477
▁mudou	-9.2764
▁atividades	-9.27737
▁francês	-9.27743
▁pesquisa	-9.27798
▁vista	-9.27956
▁single	-9.28002
▁inicialmente	-9.28015
▁faculdade	-9.281
ger	-9.28123
un	-9.28251
▁evento	-9.28308
▁espécie	-9.28545
▁&	-9.28695
▁parque	-9.28729
▁objetivo	-9.28753
▁espanha	-9.2879
▁anti	-9.2909
_	-9.29383
▁votos	-9.294
▁estúdio	-9.29677
–	-9.29754
▁tudo	-9.30002
▁levou	-9.30027
▁povo	-9.30035
sco	-9.30088
pu	-9.30127
nia	-9.30194
▁cidades	-9.3042
▁branco	-9.30474
▁luz	-9.30515
▁dis	-9.30612
▁j	-9.3066
▁nossa	-9.30692
10	-9.3088
▁realizado	-9.30979
ham	-9.31072
▁general	-9.31176
▁campeão	-9.31214
▁associação	-9.31294
▁castelo	-9.31402
▁2010	-9.31519
nes	-9.31652
▁cantora	-9.31809
▁estreia	-9.32078
▁categoria	-9.32172
▁dessa	-9.32462
▁presença	-9.32544
▁entretanto	-9.32589
▁músicas	-9.32621
▁província	-9.32649
30	-9.32672
▁comunidade	-9.32772
▁2011,	-9.32825
▁deu	-9.32825
▁curso	-9.32855
▁par	-9.32871
dio	-9.32877
▁estreou	-9.32952
ces	-9.33037
▁atriz	-9.33113
▁próximo	-9.33197
▁responsável	-9.33401
▁uni	-9.33445
▁semana	-9.33467
▁anterior	-9.33497
agem	-9.33706
▁livros	-9.33772
ran	-9.33899
▁tenha	-9.33918
ano	-9.33957
can	-9.3398
20	-9.34022
▁2010,	-9.34192
▁novas	-9.34366
tel	-9.34598
▁capacidade	-9.34604
▁personagens	-9.34655
pt	-9.34663
stra	-9.34671
▁2012,	-9.34728
dy	-9.3478
▁competição	-9.34846
▁29	-9.34862
▁bastante	-9.3492
▁zona	-9.35067
▁existe	-9.35143
▁maneira	-9.35149
▁paulista	-9.35222
▁lançada	-9.35227
▁trabalhar	-9.35246
▁fe	-9.35325
ron	-9.35402
▁pública	-9.35464
▁entrou	-9.35585
iana	-9.35677
▁nem	-9.35754
▁via	-9.35775
▁casou	-9.35834
▁oeste	-9.35901
▁trabalhos	-9.35932
▁japão	-9.35952
iano	-9.36021
▁fundação	-9.36102
▁pan	-9.3626
▁partida	-9.36359
▁ocorreu	-9.36372
▁defesa	-9.36645
ol	-9.3666
▁faixa	-9.36701
▁torneio	-9.36897
▁2012	-9.36925
▁inglaterra	-9.36936
▁feita	-9.36946
cal	-9.37068
▁venceu	-9.37072
▁unido	-9.37127
ã	-9.37207
gan	-9.3727
▁luís	-9.37351
▁2013,	-9.37376
ix	-9.37434
tt	-9.37481
▁gol	-9.37519
▁menor	-9.37557
▁chefe	-9.37632
▁houve	-9.37703
he	-9.37768
▁príncipe	-9.38012
▁artistas	-9.38072
▁melhores	-9.38098
▁quarto	-9.38125
ssem	-9.38142
▁deus	-9.38399
ren	-9.38424
▁presente	-9.38439
izada	-9.38637
▁combate	-9.38638
como	-9.38711
▁utilizado	-9.38944
tri	-9.38979
▁estar	-9.38982
▁tornar	-9.39062
50	-9.39104
▁fosse	-9.39147
▁perto	-9.39184
▁freguesia	-9.39223
▁tinham	-9.3924
▁minas	-9.39337
▁trabalhou	-9.39355
▁elementos	-9.39694
▁tornando	-9.3974
▁direitos	-9.39882
▁empresas	-9.39912
▁crianças	-9.40162
▁entrada	-9.40358
▁pequena	-9.404
▁cha	-9.4043
▁bom	-9.40431
▁2014,	-9.40493
▁oito	-9.40542
▁localizado	-9.4059
▁canções	-9.40625
▁torna	-9.40635
tação	-9.40636
dora	-9.40834
ff	-9.40874
▁ator	-9.40877
▁segurança	-9.41034
tí	-9.4112
▁ben	-9.41128
▁tu	-9.41275
nd	-9.41403
▁deputado	-9.41635
▁horas	-9.41697
”,	-9.41717
tina	-9.41908
inho	-9.42112
▁ocorre	-9.42223
▁teoria	-9.42363
▁w	-9.42463
par	-9.42476
▁especialmente	-9.42492
▁aparece	-9.42515
tan	-9.42589
▁finalmente	-9.42595
▁2011	-9.42726
▁2008	-9.42741
▁artista	-9.42774
dão	-9.42851
▁visto	-9.42997
▁mostra	-9.43026
▁alemão	-9.43219
ações	-9.43237
▁edifício	-9.43274
▁2016,	-9.43383
▁jo	-9.4344
▁(18	-9.4353
▁val	-9.43659
▁2015,	-9.43678
▁cultural	-9.43812
gio	-9.43843
▁2009,	-9.43876
▁site	-9.43962
▁monte	-9.44009
▁nessa	-9.44318
ny	-9.4444
▁corte	-9.44468
ente	-9.44512
▁som	-9.44563
▁desse	-9.44594
xa	-9.44615
▁2013	-9.44666
▁realizada	-9.44916
ide	-9.45018
").	-9.45143
nça	-9.45145
▁iii	-9.45337
pp	-9.45362
▁h	-9.45394
vol	-9.45412
▁velho	-9.45454
▁estudo	-9.45489
▁administração	-9.45529
ser	-9.45622
▁senhora	-9.4568
▁plano	-9.45809
▁escrita	-9.4602
▁pequeno	-9.46122
▁2008,	-9.46157
cy	-9.46247
▁comercial	-9.46351
▁duque	-9.46429
▁ana	-9.46432
▁serem	-9.46488
▁2009	-9.46489
▁simples	-9.46634
▁natal	-9.46937
▁artes	-9.4724
▁busca	-9.47248
▁2014	-9.47289
▁jogadores	-9.47333
▁qualidade	-9.47379
▁comissão	-9.47522
ros	-9.47534
▁classe	-9.47692
▁leste	-9.4772
shi	-9.47825
▁publicado	-9.47888
tada	-9.47894
▁fo	-9.47909
▁2007	-9.47952
tur	-9.47984
▁londres	-9.48095
q	-9.48149
▁anunciou	-9.48307
▁ko	-9.48408
▁eventos	-9.4841
té	-9.48448
▁continua	-9.48457
▁pais	-9.48537
▁influência	-9.48551
▁massa	-9.48552
lé	-9.48566
ini	-9.48641
▁ministério	-9.48641
ian	-9.48753
cre	-9.48769
▁pré	-9.48901
ker	-9.48981
▁york	-9.49154
vin	-9.49234
▁polícia	-9.49365
▁baixo	-9.49477
▁criou	-9.49495
ple	-9.49658
▁music	-9.49721
▁bispo	-9.49721
▁jesus	-9.49729
▁originalmente	-9.49977
▁decisão	-9.50096
nk	-9.50112
▁acaba	-9.5013
]]	-9.50213
▁conhecimento	-9.50388
▁academia	-9.50461
vel	-9.50471
americano	-9.50525
▁globo	-9.50651
▁material	-9.50756
▁estádio	-9.50815
ssa	-9.50902
▁portanto	-9.51012
cio	-9.51079
▁destaque	-9.51136
tim	-9.51148
▁mandato	-9.51239
ru	-9.5125
▁guarda	-9.51298
▁composta	-9.51359
▁letras	-9.51385
▁poderia	-9.51436
▁independente	-9.51438
eiro	-9.51442
▁mc	-9.51492
ais	-9.51645
for	-9.51649
▁líder	-9.51658
▁tema	-9.5166
▁algum	-9.51666
▁técnico	-9.51755
▁31	-9.51821
▁caminho	-9.5184
▁bal	-9.52041
lho	-9.52071
ac	-9.52084
▁esses	-9.52088
▁hospital	-9.52161
▁sim	-9.52274
▁mês	-9.52325
▁francesa	-9.52333
11	-9.52401
▁prefeito	-9.52448
▁gerais	-9.5254
▁[	-9.52814
▁2006	-9.52819
▁praça	-9.5286
▁romance	-9.52877
▁interesse	-9.52919
▁produtos	-9.52944
▁paul	-9.52945
▁dá	-9.52961
▁ministro	-9.5303
▁veio	-9.53133
▁ferro	-9.53181
▁estas	-9.53272
▁características	-9.53312
▁fernando	-9.53326
▁gal	-9.53351
▁turnê	-9.53354
▁falta	-9.5339
▁carta	-9.53406
▁contudo	-9.5341
▁tão	-9.53436
▁verde	-9.5346
▁2007,	-9.53558
nas	-9.53574
ô	-9.53666
▁dr	-9.5374
▁sociais	-9.53789
▁esteve	-9.53828
▁cd	-9.53878
▁economia	-9.54045
▁estrela	-9.5409
lla	-9.54311
▁manuel	-9.54341
sso	-9.54377
▁baixa	-9.54439
▁terminou	-9.5448
ível	-9.54528
<	-9.54529
ân	-9.54638
▁aproximadamente	-9.54694
▁condições	-9.5492
▁wa	-9.54929
▁quantidade	-9.54986
tório	-9.5515
▁derrota	-9.5519
var	-9.55204
▁localizada	-9.55244
▁conquistou	-9.55257
bar	-9.55311
rão	-9.55319
▁0	-9.55461
...	-9.55578
▁considerada	-9.5558
▁antônio	-9.55624
▁programas	-9.55629
▁regiões	-9.55634
▁capela	-9.55656
▁sentido	-9.55725
▁serra	-9.55755
▁deles	-9.55764
▁ci	-9.55769
▁casos	-9.55788
▁terras	-9.55798
len	-9.55806
▁animais	-9.55844
▁2015	-9.55869
▁criar	-9.55931
▁elas	-9.56084
▁ataque	-9.56096
▁conquista	-9.56113
▁relações	-9.56214
▁imagem	-9.56233
▁formado	-9.5625
▁posto	-9.56441
▁visita	-9.5646
▁equipes	-9.56512
izar	-9.56542
my	-9.56571
▁eleições	-9.56592
▁hu	-9.56621
▁escrito	-9.56668
americana	-9.56742
mu	-9.5676
▁2017,	-9.56763
mina	-9.56787
dica	-9.56796
▁ir	-9.56797
▁new	-9.56899
ico	-9.56922
có	-9.56978
▁inclui	-9.57033
▁afirma	-9.571
don	-9.57125
▁decidiu	-9.57165
til	-9.57256
▁funções	-9.57368
▁[[	-9.57435
’	-9.5746
▁usando	-9.57699
▁cabeça	-9.57812
tia	-9.57828
▁rainha	-9.57872
▁palavra	-9.57943
▁ad	-9.58091
▁50	-9.58111
▁física	-9.58329
▁obteve	-9.58406
▁gênero	-9.58412
▁irmãos	-9.5843
hu	-9.58452
▁troca	-9.58453
▁verdade	-9.58479
▁situação	-9.58597
▁cre	-9.5863
▁madeira	-9.58644
▁primeiras	-9.5869
▁2006,	-9.58734
▁unidade	-9.5881
▁henrique	-9.58836
ante	-9.5884
▁fundada	-9.58881
val	-9.58988
▁amigo	-9.59049
ela	-9.59107
▁futuro	-9.59276
▁referência	-9.59278
▁ponte	-9.59281
▁baseado	-9.59385
▁católica	-9.59459
let	-9.59495
gui	-9.59606
gre	-9.59646
▁comunicação	-9.59805
tre	-9.59843
tin	-9.59924
▁departamento	-9.5996
▁recursos	-9.59996
▁ambiente	-9.60021
rie	-9.60076
▁motor	-9.60082
gia	-9.60086
ble	-9.60118
▁prática	-9.60185
▁escala	-9.60211
▁2016	-9.60248
▁har	-9.60257
cri	-9.60272
ias	-9.60302
▁áfrica	-9.60315
▁jorge	-9.60323
▁mon	-9.60419
cle	-9.60439
▁prova	-9.60454
▁minutos	-9.60492
ense	-9.60653
▁pen	-9.60662
▁tiveram	-9.60754
ud	-9.60934
▁etc	-9.60976
▁colégio	-9.61069
rd	-9.61079
▁clubes	-9.61105
▁continuou	-9.6111
▁poli	-9.61128
▁sistemas	-9.61233
▁mestre	-9.61303
▁leva	-9.61311
▁armas	-9.6139
▁romano	-9.61408
▁formato	-9.61493
▁histórico	-9.61547
▁acima	-9.61577
qu	-9.61607
lia	-9.6173
▁campos	-9.61759
▁essas	-9.6178
tivos	-9.61858
▁china	-9.61927
▁velocidade	-9.61929
▁amigos	-9.61972
bal	-9.62012
▁reforma	-9.62134
▁últimos	-9.6215
▁homenagem	-9.62211
▁informações	-9.6224
cional	-9.62262
40	-9.62265
▁longa	-9.62275
ct	-9.62289
▁provavelmente	-9.62385
han	-9.62401
áveis	-9.62453
▁vem	-9.62468
▁jornalista	-9.62542
▁40	-9.62686
▁comércio	-9.62766
▁tele	-9.62826
▁jovens	-9.62898
▁propriedade	-9.62977
one	-9.63016
);	-9.6303
▁dirigido	-9.6307
▁militares	-9.63089
▁médio	-9.63104
▁carro	-9.63153
▁partes	-9.6319
▁david	-9.63195
▁chi	-9.63316
▁fonte	-9.63361
▁imp	-9.63518
tic	-9.63526
▁trata	-9.63566
▁você	-9.63578
▁tecnologia	-9.63665
rei	-9.63706
▁emissora	-9.63708
▁cuja	-9.63735
nta	-9.63769
kin	-9.63799
▁usar	-9.64093
stro	-9.64262
▁nenhum	-9.64296
vida	-9.64356
▁ideia	-9.64363
▁cujo	-9.64496
mia	-9.64538
▁templo	-9.64601
▁cantor	-9.64701
▁justiça	-9.64854
yo	-9.64929
▁atuou	-9.65086
spe	-9.65138
▁tratado	-9.65149
▁missão	-9.65295
▁atividade	-9.65303
sp	-9.65331
▁xix	-9.6545
▁passado	-9.65509
▁irmã	-9.65528
▁usada	-9.65539
ato	-9.65579
tz	-9.65639
▁mag	-9.66027
▁tropas	-9.66067
▁sha	-9.66078
▁incluem	-9.66124
▁natureza	-9.66302
▁je	-9.66318
▁2005	-9.66331
gen	-9.66387
▁xx	-9.66399
▁publicou	-9.66409
▁passar	-9.66424
▁problema	-9.6644
▁encontrar	-9.66488
▁manter	-9.66594
▁elenco	-9.66696
ara	-9.66747
ps	-9.6679
▁tratamento	-9.66862
▁torno	-9.66883
000	-9.66886
▁construído	-9.66955
ney	-9.66968
19	-9.67041
▁assumiu	-9.67071
net	-9.67093
pul	-9.67122
▁sequência	-9.67293
pen	-9.67343
▁crítica	-9.67388
▁ciências	-9.67425
15	-9.67531
▁permaneceu	-9.67542
▁revela	-9.67671
▁diferente	-9.67837
wi	-9.6786
ü	-9.67934
▁técnica	-9.67945
▁sin	-9.67954
▁tradicional	-9.6799
▁decreto	-9.68019
ib	-9.68081
▁banco	-9.68095
▁usa	-9.6812
25	-9.68182
▁escritor	-9.68237
cou	-9.68246
cor	-9.68246
▁indústria	-9.68328
vio	-9.6837
▁metade	-9.68396
▁paz	-9.68398
▁abertura	-9.68402
▁americana	-9.68432
vis	-9.68467
bil	-9.68569
▁normalmente	-9.68588
▁distância	-9.68715
fre	-9.68803
fen	-9.68855
▁porta	-9.68887
▁americano	-9.68906
▁padrão	-9.68939
rica	-9.69014
▁eua	-9.69048
▁mata	-9.69062
▁passando	-9.6914
▁tipos	-9.6919
▁tribunal	-9.69209
ite	-9.69247
▁parceria	-9.69262
▁produzido	-9.69279
ele	-9.69284
ang	-9.69391
▁dez	-9.69464
we	-9.69574
▁importância	-9.69609
▁gols	-9.6972
▁refere	-9.69722
▁verão	-9.69793
▁chegar	-9.69804
▁miguel	-9.6988
▁metal	-9.69916
▁capitão	-9.69994
zu	-9.70051
rus	-9.70109
▁apresentou	-9.70163
▁editora	-9.70224
”.	-9.70258
single	-9.70481
pon	-9.70547
▁robert	-9.70568
▁james	-9.70697
▁figura	-9.70807
▁corre	-9.70861
▁coroa	-9.70973
ró	-9.71052
▁tom	-9.71186
▁méxico	-9.7126
▁possuem	-9.7126
▁rea	-9.71291
▁nomes	-9.71357
▁espírito	-9.71359
▁ce	-9.71422
▁realizou	-9.71444
▁cabo	-9.71451
dra	-9.71453
tica	-9.71504
ín	-9.71554
mba	-9.71765
▁medalha	-9.71787
ts	-9.71832
▁cap	-9.71835
▁domínio	-9.7187
▁análise	-9.7189
ye	-9.71986
▁nove	-9.72043
▁memória	-9.7219
não	-9.72194
▁rapidamente	-9.72202
iam	-9.72203
iu	-9.72223
▁índia	-9.72249
▁marido	-9.72256
▁peça	-9.72443
▁padre	-9.72447
lá	-9.7246
izou	-9.72465
mb	-9.72572
au	-9.72629
inha	-9.7282
port	-9.73009
rre	-9.7303
▁dentre	-9.73044
▁tamanho	-9.73107
▁marcou	-9.7318
▁argentina	-9.73242
▁gra	-9.73259
▁voo	-9.73305
ther	-9.73312
▁deixa	-9.73351
▁completa	-9.7337
▁unidades	-9.73399
▁dinheiro	-9.73401
pri	-9.7342
▁humanos	-9.73482
▁reserva	-9.73573
▁estudou	-9.73625
▁2004	-9.73958
▁código	-9.73964
▁começaram	-9.73981
▁2018,	-9.74
▁representa	-9.74001
"".	-9.74026
▁demais	-9.74099
▁termos	-9.74109
▁sala	-9.7416
esta	-9.74174
cul	-9.74213
siva	-9.74283
▁dança	-9.74319
▁classificação	-9.74471
bol	-9.74473
▁frequentemente	-9.74538
▁peso	-9.74541
lan	-9.74714
xo	-9.74762
▁abaixo	-9.748
ral	-9.74824
▁pós	-9.74835
▁dupla	-9.74877
▁algo	-9.749
dé	-9.74912
▁peças	-9.74975
▁literatura	-9.75115
▁multi	-9.75165
▁conceito	-9.75194
▁seguir	-9.75217
▁revolução	-9.75269
▁superfície	-9.75437
▁oficialmente	-9.75757
▁praia	-9.75778
▁2000	-9.75826
▁interna	-9.75896
▁moderna	-9.75897
▁capa	-9.75901
80	-9.76015
ab	-9.7606
gos	-9.76062
▁planta	-9.76246
▁acredita	-9.76254
▁estrada	-9.76285
▁ocidental	-9.76303
▁permite	-9.76309
cur	-9.76317
▁barra	-9.76328
▁novela	-9.76337
▁crescimento	-9.76384
▁1.	-9.76457
▁torre	-9.76458
12	-9.76512
▁col	-9.76628
▁operação	-9.76635
▁iv	-9.76732
▁regional	-9.76791
13	-9.76802
tem	-9.7688
▁complexo	-9.7699
▁ban	-9.77079
▁existência	-9.77094
▁apresentado	-9.77113
bus	-9.77175
▁ger	-9.77185
▁pra	-9.77199
ris	-9.77255
ito	-9.77318
▁2005,	-9.77371
▁palavras	-9.77468
▁filosofia	-9.77469
▁digital	-9.77492
▁cu	-9.77549
▁parece	-9.77562
▁italiano	-9.77681
▁pop	-9.77695
▁apareceu	-9.777
ment	-9.77725
▁alemã	-9.77736
▁oliveira	-9.77787
▁participar	-9.77928
▁dar	-9.77952
▁antónio	-9.78034
lou	-9.78117
▁medicina	-9.7814
ício	-9.78183
▁escolas	-9.78219
▁sabe	-9.78397
▁perdeu	-9.78426
sto	-9.78521
▁senhor	-9.78578
▁médico	-9.78598
▁assembleia	-9.78792
▁receber	-9.78866
75	-9.78878
line	-9.78885
▁cara	-9.78976
▁fazenda	-9.79062
berg	-9.79088
▁internet	-9.79261
▁prata	-9.79287
▁episódios	-9.7931
▁composto	-9.79377
▁mudança	-9.79378
00	-9.79467
▁secretário	-9.79508
▁rosa	-9.79509
▁60	-9.79544
rico	-9.7955
▁atrás	-9.79604
▁informação	-9.7965
▁texto	-9.79675
sion	-9.79704
nal	-9.79761
▁instituição	-9.79764
ut	-9.7986
"",	-9.79873
▁pedra	-9.79876
ava	-9.79913
▁equipa	-9.79989
ard	-9.80034
▁rússia	-9.8006
▁nascido	-9.80155
▁linhas	-9.80165
lado	-9.80252
▁gar	-9.80294
▁viagem	-9.80305
ford	-9.80353
▁realizar	-9.80381
▁procura	-9.80395
mé	-9.80402
lis	-9.80455
▁inicial	-9.80472
▁2017	-9.8049
01	-9.8051
gas	-9.80573
▁1998	-9.80606
18	-9.80654
▁formou	-9.80788
est	-9.80806
?	-9.80831
del	-9.80948
33	-9.80955
▁van	-9.80971
▁atenção	-9.80986
▁dele	-9.81019
▁desenvolvido	-9.81052
▁aldeia	-9.81053
▁contrário	-9.81101
▁poucos	-9.81102
▁localiza	-9.81146
▁retornou	-9.81166
▁títulos	-9.81232
▁projetos	-9.8124
▁george	-9.81278
▁bur	-9.81296
dura	-9.81301
▁tempos	-9.8136
▁britânico	-9.81399
▁britânica	-9.81431
▁anunciado	-9.81438
▁tour	-9.81446
ária	-9.81476
▁aqui	-9.81495
▁pin	-9.81514
▁grego	-9.8157
▁planeta	-9.81573
▁chama	-9.81677
gh	-9.8168
▁oficiais	-9.81687
mann	-9.81702
way	-9.81718
pas	-9.8172
▁cur	-9.81794
▁prisão	-9.81826
▁posse	-9.81878
tec	-9.81918
▁particular	-9.81924
▁passagem	-9.82015
har	-9.82093
▁biblioteca	-9.82104
▁alegre	-9.82135
-1	-9.82207
37	-9.82215
presidente	-9.82235
▁produtor	-9.82299
38	-9.8248
▁voz	-9.82507
▁ti	-9.82565
▁fundo	-9.82587
▁tradição	-9.82831
▁extra	-9.82914
▁versões	-9.82969
pira	-9.83018
eiras	-9.83105
▁contém	-9.83129
lau	-9.83137
▁regime	-9.83179
▁diante	-9.83244
▁conforme	-9.83252
▁inclusive	-9.83415
ling	-9.83611
▁far	-9.83655
osa	-9.83668
▁eleição	-9.83743
▁chega	-9.83813
▁fontes	-9.83824
▁transporte	-9.83873
pie	-9.83958
▁entra	-9.83977
▁bahia	-9.83995
▁ameaça	-9.84001
▁partidas	-9.84049
▁trilha	-9.84092
▁meados	-9.84095
▁festa	-9.84163
▁fala	-9.84167
▁concelho	-9.84215
▁formada	-9.84243
▁comprimento	-9.84278
▁aérea	-9.84315
ion	-9.84343
▁daquele	-9.84394
70	-9.84398
▁casal	-9.84405
fu	-9.84429
▁construída	-9.84514
▁branca	-9.84543
▁you	-9.84617
▁avenida	-9.84684
die	-9.84735
▁comandante	-9.8477
▁records	-9.8479
▁quinta	-9.8484
▁doença	-9.84846
▁antigos	-9.8489
▁baseada	-9.84922
xe	-9.85008
▁medida	-9.85147
▁internacionais	-9.85177
ves	-9.85234
▁acidente	-9.85237
▁cristo	-9.85244
▁experiência	-9.85284
▁encontram	-9.85327
▁industrial	-9.85344
zer	-9.85355
ologia	-9.85364
indo	-9.85394
▁romana	-9.85439
▁distribuição	-9.85586
14	-9.85599
▁ilhas	-9.85606
cula	-9.85645
▁concurso	-9.85751
▁<	-9.85762
▁pri	-9.85854
▁candidato	-9.85921
▁entrevista	-9.85948
ador	-9.85966
▁world	-9.85994
nho	-9.86053
▁micro	-9.86057
ura	-9.861
▁michael	-9.86102
▁iria	-9.86142
eiros	-9.86145
05	-9.8616
▁marinha	-9.8618
▁ciência	-9.86198
▁2004,	-9.86222
ign	-9.86275
▁imperial	-9.86347
▁mac	-9.86363
fina	-9.86365
gon	-9.86451
▁gestão	-9.86502
tr	-9.86503
85	-9.86529
▁saída	-9.86554
▁liberdade	-9.86592
07	-9.86628
08	-9.86681
▁luiz	-9.86689
pal	-9.86692
▁varia	-9.86768
riam	-9.87037
21	-9.87041
▁preto	-9.87076
▁imprensa	-9.87079
ola	-9.87127
▁pessoal	-9.87182
▁europeia	-9.87195
▁pintura	-9.87239
▁produzida	-9.87248
▁compositor	-9.87303
▁top	-9.87468
▁titular	-9.87508
▁resultados	-9.87568
▁constituição	-9.87629
»	-9.87649
sky	-9.87673
▁deixar	-9.87697
▁nenhuma	-9.87742
mes	-9.87766
lei	-9.87774
▁científica	-9.87779
▁espanhol	-9.87827
▁iorque	-9.87924
60	-9.87958
▁bra	-9.88128
ig	-9.88218
▁dado	-9.88316
ep	-9.88638
▁formas	-9.88648
bla	-9.88674
-20	-9.88676
39	-9.88679
bro	-9.887
▁aeroporto	-9.88734
cher	-9.88747
bit	-9.88757
▁famoso	-9.88757
▁valores	-9.88782
dis	-9.88788
▁im	-9.8889
▁william	-9.8893
▁razão	-9.88943
16	-9.89027
▁naquele	-9.89054
▁nada	-9.89056
▁acontece	-9.89076
met	-9.89141
op	-9.89149
▁faixas	-9.89169
▁2003	-9.89205
▁resposta	-9.89227
▁sonora	-9.89238
pica	-9.89343
ins	-9.89381
▁princesa	-9.89405
medi	-9.89411
▁semanas	-9.89416
55	-9.89465
▁bandeira	-9.89484
▁efeito	-9.89527
van	-9.89587
▁anteriores	-9.89649
▁aumento	-9.89653
▁entrar	-9.89661
fica	-9.89718
fra	-9.89785
▁jogar	-9.89788
logia	-9.89828
▁serviu	-9.89942
▁necessário	-9.89947
▁programação	-9.89948
▁80	-9.8995
▁marco	-9.89984
tico	-9.90144
▁álbuns	-9.90255
47	-9.90273
cen	-9.90275
tsu	-9.90304
▁we	-9.9031
▁esquerda	-9.90321
▁canadá	-9.90349
▁utilizada	-9.90394
17	-9.90403
▁azul	-9.90405
48	-9.90421
nde	-9.90439
36	-9.9044
▁imagens	-9.90512
tribu	-9.90553
▁atua	-9.90555
▁alunos	-9.90575
▁intitulado	-9.90581
pos	-9.90604
▁independência	-9.90803
cra	-9.90818
▁estadunidense	-9.90856
▁sinal	-9.90904
▁ficar	-9.91121
65	-9.91182
▁favor	-9.91191
uf	-9.91193
▁tentativa	-9.912
▁exposição	-9.91207
▁cena	-9.91208
▁junta	-9.91321
▁fun	-9.91391
ō	-9.91408
tch	-9.91446
tário	-9.91475
▁nacionais	-9.91502
▁temperatura	-9.91523
▁nu	-9.91538
▁casas	-9.9159
fon	-9.91639
ica	-9.91669
▁honra	-9.91753
este	-9.91776
▁opera	-9.91781
▁contato	-9.91797
▁conteúdo	-9.918
▁fundador	-9.91831
▁1997	-9.91941
▁poeta	-9.92025
▁gravadora	-9.9203
▁2000,	-9.92066
▁taxa	-9.92092
90	-9.92161
▁descoberta	-9.92162
▁passaram	-9.92258
▁engenheiro	-9.92288
▁faleceu	-9.92288
▁mistura	-9.92426
▁residência	-9.9252
▁artigo	-9.92549
▁vermelho	-9.92587
▁alguma	-9.92598
▁consiste	-9.92681
▁aconteceu	-9.92718
▁mão	-9.92795
iro	-9.92802
▁1996	-9.92866
moto	-9.92907
lon	-9.92918
▁visão	-9.92932
cto	-9.92962
▁operações	-9.93016
_1	-9.93064
ima	-9.93075
▁fazem	-9.93145
ctor	-9.93242
tória	-9.93335
▁criança	-9.93419
▁califórnia	-9.93493
▁respectivamente	-9.93499
▁respeito	-9.93603
▁2002	-9.93661
49	-9.93682
▁lugares	-9.93692
▁devem	-9.93765
▁demonstra	-9.93768
44	-9.93773
▁fórmula	-9.93796
09	-9.93808
▁compra	-9.93814
tha	-9.93932
▁vinte	-9.93951
nda	-9.94021
▁semelhante	-9.94056
▁cursos	-9.94064
▁fogo	-9.94114
posi	-9.9412
▁sam	-9.94122
42	-9.94186
▁núcleo	-9.94267
▁prefeitura	-9.94295
▁tenta	-9.94305
▁suficiente	-9.94364
▁el	-9.94396
▁austrália	-9.9442
▁estrelas	-9.94438
▁cores	-9.94465
▁isabel	-9.94504
▁pedido	-9.9451
▁alcançou	-9.94517
menta	-9.94522
2.	-9.94528
ire	-9.94539
▁escolhido	-9.9467
ná	-9.9469
▁temas	-9.94783
▁ambas	-9.948
gou	-9.94816
▁soviética	-9.94838
▁an	-9.94843
▁quarta	-9.94986
▁cla	-9.9499
▁fortaleza	-9.94991
▁humano	-9.95011
▁orquestra	-9.95075
▁manteve	-9.9512
pin	-9.95188
▁treinador	-9.95202
▁fizeram	-9.95215
ö	-9.95254
▁esporte	-9.95256
▁70	-9.95259
▁grau	-9.9537
04	-9.954
▁piloto	-9.95521
anda	-9.95524
34	-9.95558
▁destaca	-9.95623
▁totalmente	-9.9563
ez	-9.95637
▁rap	-9.95707
▁neo	-9.95733
▁pequenas	-9.95789
▁produzir	-9.95792
24	-9.95793
▁afirmou	-9.95919
ón	-9.95926
mir	-9.96139
▁capaz	-9.96148
posta	-9.96209
▁soldados	-9.96216
▁geração	-9.9627
▁morto	-9.96334
mentos	-9.96379
▁escrever	-9.96414
▁informa	-9.96534
45	-9.96542
▁desempenho	-9.96576
64	-9.96595
▁palco	-9.96683
▁1994	-9.96692
▁us	-9.96782
▁vive	-9.96783
2,	-9.96805
bia	-9.9681
54	-9.96912
nis	-9.96982
▁encontro	-9.96983
▁políticas	-9.96984
ers	-9.96998
23	-9.97006
ônica	-9.97052
▁congresso	-9.97082
▁advogado	-9.97125
06	-9.97154
▁pereira	-9.97223
▁pla	-9.97227
▁2001	-9.97232
▁surgiu	-9.97241
▁art	-9.97274
▁tre	-9.97348
rada	-9.97357
▁jardim	-9.9738
▁angeles	-9.97428
▁cópias	-9.97462
▁musicais	-9.97467
▁web	-9.975
▁feminino	-9.97511
▁necessidade	-9.97553
cro	-9.97568
▁aberta	-9.97585
▁diretamente	-9.97789
hon	-9.97808
▁graças	-9.97893
if	-9.97894
▁pé	-9.97903
▁200	-9.9793
▁mari	-9.97961
▁inc	-9.97988
iza	-9.97999
ky	-9.98094
▁engenharia	-9.98101
gado	-9.98129
▁daniel	-9.98178
bio	-9.98195
▁pequenos	-9.98232
ía	-9.98293
▁russo	-9.98321
ent	-9.9836
▁afonso	-9.9842
▁«	-9.9842
lina	-9.98495
missão	-9.98532
▁produto	-9.98566
▁próxima	-9.98588
nó	-9.98604
▁jean	-9.98627
▁línguas	-9.98687
pico	-9.98758
feri	-9.98826
ban	-9.98847
▁substituído	-9.98861
▁variedade	-9.98944
▁1995	-9.98958
▁profissionais	-9.98999
▁método	-9.99
wood	-9.99005
▁disputou	-9.99028
▁anteriormente	-9.99047
▁políticos	-9.99137
58	-9.99139
▁hora	-9.99144
46	-9.99177
28	-9.99189
▁conhecidos	-9.99225
▁mãos	-9.99333
▁recebe	-9.99349
▁ri	-9.99353
56	-9.9937
rí	-9.99427
▁recorde	-9.99442
pla	-9.99547
▁exibido	-9.99554
▁universo	-9.99555
ns	-9.99573
▁bro	-9.99616
▁utiliza	-9.99618
ula	-9.99625
bate	-9.99665
lie	-9.99708
hen	-9.99762
▁fronteira	-9.99769
indi	-9.99794
▁floresta	-9.99813
cida	-9.99825
▁desenho	-9.9984
gel	-9.99841
▁lou	-9.99858
▁navio	-9.99891
▁linguagem	-9.99949
▁prédio	-9.99994
▁2.	-10.0003
22	-10.0007
▁topo	-10.0008
▁esca	-10.0009
▁ciclo	-10.0009
▁especiais	-10.0011
▁lima	-10.0012
▁composição	-10.0017
▁extensão	-10.0026
▁nascimento	-10.0031
▁contexto	-10.0033
▁deixando	-10.0042
uri	-10.0045
sí	-10.0058
▁obter	-10.0058
▁fábrica	-10.0073
▁gravado	-10.0075
▁funciona	-10.0078
▁reinado	-10.008
ética	-10.0089
tivas	-10.0089
▁pat	-10.0091
▁proposta	-10.0092
41	-10.0097
▁elevado	-10.0105
rra	-10.011
▁tro	-10.0112
cimento	-10.0113
íveis	-10.0114
▁gravação	-10.0116
cá	-10.0122
mbo	-10.0126
ung	-10.0139
ski	-10.014
▁dvd	-10.0141
▁famílias	-10.0145
▁expressão	-10.0151
▁efeitos	-10.0158
pensa	-10.0158
▁coração	-10.0162
und	-10.0165
95	-10.0171
▁haviam	-10.0181
▁catarina	-10.0185
43	-10.0186
▁segue	-10.0188
▁portugueses	-10.0191
99	-10.0191
nor	-10.0191
pé	-10.0192
▁nordeste	-10.0194
tais	-10.0196
▁empresário	-10.0204
▁oriental	-10.0214
bor	-10.0231
▁trono	-10.0234
▁possibilidade	-10.0236
▁famosa	-10.0236
▁2003,	-10.0239
▁semi	-10.0241
▁geo	-10.0242
▁apresentar	-10.0245
▁2002,	-10.0245
san	-10.025
▁agência	-10.025
icamente	-10.0254
▁salvador	-10.0254
▁fornece	-10.0265
▁publicada	-10.0267
▁fundou	-10.0277
▁completamente	-10.0279
up	-10.0282
▁inicia	-10.0288
▁cons	-10.0289
▁sai	-10.03
▁realiza	-10.0316
▁reais	-10.0318
▁volume	-10.0321
▁=	-10.0325
▁2018	-10.0325
▁aberto	-10.0327
pan	-10.0329
▁martin	-10.033
tis	-10.033
▁fra	-10.0333
▁eduardo	-10.0333
titu	-10.0334
▁estudantes	-10.0337
▁ajudar	-10.0339
▁fundado	-10.0348
▁críticas	-10.0349
▁publicação	-10.0361
▁apresentação	-10.0361
▁pertence	-10.0361
▁começo	-10.0364
iz	-10.0371
▁nota	-10.0373
▁recentemente	-10.0386
carrega	-10.0392
pó	-10.0394
03	-10.0394
1,	-10.0396
▁clima	-10.0397
▁cenário	-10.0398
vesti	-10.0407
rado	-10.0427
▁facto	-10.0431
▁italiana	-10.0432
▁oferece	-10.0434
▁gu	-10.0437
tv	-10.0439
▁club	-10.044
▁envolve	-10.0451
geral	-10.0456
▁técnicas	-10.0456
elli	-10.0457
▁alma	-10.0458
▁peter	-10.0461
▁assinou	-10.0464
▁humana	-10.0465
su	-10.0466
era	-10.0466
▁circuito	-10.0468
▁risco	-10.0468
▁roberto	-10.047
▁enviado	-10.0471
▁1992	-10.0474
▁constitui	-10.0475
▁viver	-10.0482
▁comuns	-10.0488
▁finais	-10.0493
▁ponta	-10.0495
▁ligação	-10.0498
▁cole	-10.0499
▁chegada	-10.05
53	-10.0504
▁sofreu	-10.0506
▁1960	-10.0518
▁levar	-10.052
▁quebra	-10.053
▁corrente	-10.0535
▁carga	-10.0535
▁arquitetura	-10.0537
▁charles	-10.0543
▁nações	-10.0548
▁conflito	-10.055
ning	-10.0552
tores	-10.0556
ure	-10.056
▁autores	-10.0561
▁latina	-10.0566
ivo	-10.0567
▁evitar	-10.0575
▁ku	-10.0577
▁espanhola	-10.0579
ânia	-10.0586
off	-10.0587
51	-10.0588
27	-10.0595
▁times	-10.0603
▁los	-10.0603
▁saiu	-10.0608
wo	-10.061
▁frequência	-10.0611
▁provoca	-10.0617
▁retorno	-10.0617
▁comportamento	-10.0618
▁dólares	-10.0624
▁formar	-10.0631
▁células	-10.0631
▁quinto	-10.0632
▁record	-10.0635
▁direita	-10.0635
▁simplesmente	-10.0636
log	-10.064
▁carvalho	-10.064
▁paraná	-10.0642
mal	-10.0648
▁flores	-10.0654
ários	-10.0663
lt	-10.0666
leg	-10.0668
star	-10.0677
▁sé	-10.068
▁preso	-10.0681
▁conhece	-10.0682
▁perda	-10.0683
rin	-10.0686
▁1977	-10.0694
▁recebido	-10.0702
kh	-10.0703
▁histórias	-10.0705
▁feitas	-10.0711
▁1991	-10.0711
▁andré	-10.0717
ville	-10.0718
▁ocasião	-10.0721
cum	-10.0724
▁altitude	-10.0726
ística	-10.073
▁realidade	-10.0733
▁histórica	-10.0736
▁resto	-10.0739
▁performance	-10.074
forma	-10.0741
▁caça	-10.075
lle	-10.0751
cente	-10.0754
▁software	-10.0755
▁my	-10.0755
▁star	-10.0763
▁termina	-10.0767
▁questão	-10.077
nova	-10.0772
▁ferreira	-10.0774
▁federação	-10.0775
▁escolha	-10.0777
▁ficando	-10.0777
▁resistência	-10.0786
▁voltar	-10.0789
▁fixa	-10.0791
26	-10.0798
▁cai	-10.0807
▁atuação	-10.0808
▁destes	-10.0816
▁instituições	-10.0818
▁meta	-10.0822
ller	-10.0834
▁za	-10.0835
▁1990	-10.0837
▁mosteiro	-10.0839
▁alexandre	-10.0844
▁mudanças	-10.0847
▁enorme	-10.0852
dro	-10.0854
▁turno	-10.086
▁velha	-10.0862
sha	-10.0867
▁usados	-10.0873
▁modelos	-10.0873
▁precisa	-10.0874
bas	-10.0876
";	-10.0877
▁custo	-10.0878
funda	-10.088
▁ganhar	-10.0886
uta	-10.089
▁shows	-10.089
▁exterior	-10.089
▁destino	-10.0897
▁dura	-10.0898
gna	-10.09
hal	-10.0901
▁plantas	-10.0906
dade	-10.0907
▁vão	-10.091
vas	-10.091
ak	-10.0923
▁pressão	-10.0929
ag	-10.0931
▁drama	-10.0932
▁possuía	-10.0933
▁crise	-10.0942
bert	-10.0946
▁1993	-10.0949
▁presentes	-10.0953
▁artístico	-10.0958
▁inglesa	-10.0963
▁executivo	-10.0969
▁coisas	-10.0972
▁objetos	-10.0973
▁belo	-10.0979
▁consegue	-10.098
▁vaga	-10.098
liga	-10.098
tido	-10.0981
▁comédia	-10.099
▁objeto	-10.0991
nna	-10.0993
02	-10.1
▁conseguir	-10.1002
dar	-10.1004
ância	-10.1009
▁doutor	-10.1011
stre	-10.1013
▁pena	-10.1015
rais	-10.1017
▁ber	-10.1022
ting	-10.1026
▁contou	-10.1028
cla	-10.1032
idos	-10.1036
clu	-10.1046
▁()	-10.1048
▁águas	-10.1049
parti	-10.1051
quia	-10.1055
▁europeu	-10.1055
▁bio	-10.1064
▁vê	-10.1065
▁materiais	-10.107
▁municípios	-10.1075
▁descreve	-10.1084
mental	-10.1084
ático	-10.1086
▁men	-10.1086
▁diocese	-10.1096
▁conferência	-10.1098
ativa	-10.1104
sti	-10.1105
rey	-10.1115
well	-10.1118
▁chegando	-10.1119
▁castro	-10.1121
▁construir	-10.1121
▁negócios	-10.1126
▁leão	-10.1127
▁depende	-10.113
press	-10.1132
▁revolta	-10.1133
▁foto	-10.1134
▁richard	-10.1134
▁universal	-10.1148
zar	-10.1151
ugh	-10.1154
▁90	-10.1156
▁reconhecimento	-10.1157
tta	-10.1159
▁princípio	-10.116
ístico	-10.1165
▁nave	-10.1168
▁antonio	-10.117
▁contratado	-10.1174
▁dizendo	-10.1179
▁love	-10.1181
▁fundamental	-10.1187
cada	-10.1188
▁1999	-10.119
▁fãs	-10.119
▁sangue	-10.1193
pes	-10.1196
▁décadas	-10.1203
lica	-10.1203
▁difícil	-10.1204
▁israel	-10.1204
▁certo	-10.1213
98	-10.1214
▁sch	-10.1221
▁dizer	-10.1225
▁menores	-10.1225
ap	-10.1232
86	-10.1234
▁golpe	-10.1239
ciona	-10.1242
her	-10.1248
ier	-10.1251
▁tentou	-10.1251
graf	-10.1252
78	-10.1262
▁níveis	-10.1265
▁corrida	-10.127
▁curta	-10.127
▁coleção	-10.1273
peti	-10.1273
gens	-10.1277
estra	-10.1299
▁canta	-10.1303
▁físico	-10.1306
▁1967	-10.1306
cr	-10.1307
▁encontrado	-10.1313
pra	-10.1317
▁leve	-10.1323
▁condição	-10.1327
▁pista	-10.1329
▁juntos	-10.133
eta	-10.1331
29	-10.1331
▁che	-10.1332
▁mídia	-10.1332
long	-10.1335
▁augusto	-10.1342
▁wi	-10.1347
field	-10.1357
▁gene	-10.136
▁ocupa	-10.1363
burg	-10.1366
▁brasileiros	-10.138
▁tomou	-10.1383
▁bizantino	-10.1386
▁deveria	-10.1388
vil	-10.1388
▁viveu	-10.139
▁indicado	-10.1396
&	-10.1396
rich	-10.1396
▁matemática	-10.1405
glo	-10.1407
▁franco	-10.141
▁colocado	-10.1412
▁trabalhadores	-10.1415
▁máximo	-10.1416
▁fazia	-10.1417
▁venda	-10.1418
▁naturais	-10.142
ue	-10.142
▁von	-10.1422
ges	-10.1433
ray	-10.1436
|	-10.1437
sar	-10.1438
▁ação	-10.144
ist	-10.1445
din	-10.1447
▁vol	-10.1449
▁1990,	-10.145
sol	-10.1451
nica	-10.1452
▁sy	-10.1453
▁sítio	-10.1455
▁2001,	-10.1461
▁1966	-10.1467
▁sexo	-10.1467
▁1962	-10.1468
fund	-10.1471
35	-10.1471
▁neto	-10.1471
▁críticos	-10.1476
▁jogou	-10.148
▁presta	-10.148
▁bronze	-10.1485
▁guitarra	-10.1489
▁chris	-10.1491
▁1988	-10.1494
▁situada	-10.1509
▁satélite	-10.1515
▁números	-10.1517
▁soma	-10.1517
▁sejam	-10.1524
▁agricultura	-10.1525
▁comunista	-10.1531
▁ganha	-10.1531
▁guilherme	-10.1534
▁mato	-10.1535
▁arma	-10.1537
▁monta	-10.1542
mais	-10.1548
bat	-10.155
▁matéria	-10.1551
▁meia	-10.1557
▁nós	-10.1558
▁1971	-10.1559
▁tomar	-10.1565
▁determinado	-10.1574
▁negro	-10.1578
ativo	-10.1578
▁econômico	-10.1587
põe	-10.1602
▁colônia	-10.1605
lam	-10.1611
gg	-10.1614
nsa	-10.1618
▁sexual	-10.1621
▁vencedor	-10.1622
form	-10.1625
▁tor	-10.1627
quart	-10.163
▁dando	-10.1634
gro	-10.1639
76	-10.1645
88	-10.1646
▁situa	-10.1657
ial	-10.1658
▁expansão	-10.1663
▁edições	-10.1665
68	-10.1675
isto	-10.1676
▁decide	-10.1677
fort	-10.1677
▁tar	-10.1679
▁setor	-10.1682
▁lança	-10.1686
▁qui	-10.1692
rito	-10.1692
▁protagonista	-10.17
▁seguido	-10.1703
▁transmissão	-10.1705
84	-10.1706
zen	-10.1707
▁pratica	-10.1715
corre	-10.1718
blo	-10.1721
▁situado	-10.1725
gráfico	-10.1726
▁desses	-10.1736
gua	-10.1736
pl	-10.1743
sia	-10.1743
▁1989	-10.1745
▁derrotado	-10.1757
▁estudar	-10.176
▁school	-10.1764
▁declarou	-10.1766
▁iniciativa	-10.1767
▁viria	-10.1769
ví	-10.177
▁tira	-10.1776
▁aceita	-10.1778
▁rota	-10.1785
▁rodada	-10.1794
▁lago	-10.1799
▁infância	-10.18
dico	-10.1818
tti	-10.182
▁normal	-10.182
▁cenas	-10.1823
ek	-10.1829
lli	-10.1831
▁denominado	-10.1831
▁cm	-10.1833
gé	-10.1838
▁alvo	-10.1841
▁relacionamento	-10.1848
▁ref	-10.1851
▁awards	-10.1854
▁organizado	-10.1863
ua	-10.1867
▁atingir	-10.187
▁potencial	-10.1872
▁thomas	-10.1874
▁legal	-10.1878
▁pesquisas	-10.1882
▁proteção	-10.1885
▁tabela	-10.1886
▁certa	-10.189
▁bor	-10.1891
▁saber	-10.1895
grafia	-10.1895
uni	-10.1899
cep	-10.1902
▁gomes	-10.1912
97	-10.1912
tus	-10.1913
▁vindo	-10.1921
▁desenvolveu	-10.1922
cionais	-10.1922
▁chance	-10.1923
▁inferior	-10.1923
▁alfa	-10.1923
▁reis	-10.1923
▁espera	-10.1927
▁oposição	-10.1929
▁terá	-10.1932
▁atingiu	-10.1932
lio	-10.1933
entes	-10.1936
▁presidência	-10.1936
▁hor	-10.1938
▁liderança	-10.194
▁química	-10.1941
▁bel	-10.1943
52	-10.1944
mática	-10.195
▁1965	-10.1952
▁canto	-10.1955
▁1986	-10.1957
▁1980	-10.1959
▁convidado	-10.196
▁visual	-10.1964
▁radio	-10.1969
96	-10.197
▁cra	-10.197
▁populares	-10.197
▁quadro	-10.1974
66	-10.1976
▁levando	-10.1979
▁carioca	-10.1979
▁casado	-10.1979
▁sur	-10.1981
ens	-10.1986
▁flor	-10.1991
▁integra	-10.1992
mio	-10.1993
rick	-10.1993
87	-10.1994
▁descobre	-10.1995
▁urbano	-10.2003
▁eleitoral	-10.2006
▁xviii	-10.2009
▁luc	-10.2011
pel	-10.2012
▁gravou	-10.2014
▁cria	-10.2014
▁emprego	-10.2018
lf	-10.2019
!"	-10.2023
ios	-10.2024
▁corresponde	-10.2024
né	-10.2033
▁comerciais	-10.2038
▁igual	-10.2041
▁mel	-10.2048
▁consequência	-10.2049
▁tela	-10.2065
ä	-10.2065
▁reconhecido	-10.2076
▁roteiro	-10.2077
▁1963	-10.2079
▁públicas	-10.2083
▁explica	-10.2094
pura	-10.2097
▁participa	-10.21
▁primo	-10.2103
▁fé	-10.2103
▁cardeal	-10.2107
▁navios	-10.2111
▁concentra	-10.2112
92	-10.2112
hop	-10.2116
cidade	-10.2119
▁aumenta	-10.2119
rt	-10.2127
▁seguindo	-10.2127
uro	-10.2128
▁seriam	-10.2134
▁séculos	-10.2138
▁cima	-10.2138
▁black	-10.2138
▁hall	-10.2139
▁aproxima	-10.2139
col	-10.2145
▁rodrigues	-10.2145
▁prepara	-10.2146
▁promovido	-10.2147
girl	-10.215
▁ama	-10.215
▁imediatamente	-10.2152
79	-10.2153
è	-10.2153
▁cristã	-10.2153
▁claro	-10.2153
ilha	-10.2154
▁disponível	-10.2154
▁crime	-10.2163
▁letra	-10.2163
sivo	-10.2163
plan	-10.2165
▁espacial	-10.2165
▁cli	-10.2169
▁bon	-10.2171
tando	-10.2175
-18	-10.2176
59	-10.2177
▁regra	-10.2178
▁habita	-10.2183
77	-10.2184
posição	-10.2188
31	-10.2189
lly	-10.22
▁passageiros	-10.2211
ov	-10.2214
nder	-10.2215
pia	-10.2218
▁audiência	-10.2218
▁xvi	-10.2221
▁césar	-10.2229
uk	-10.2229
▁condado	-10.223
▁mudar	-10.2232
67	-10.2239
▁prémio	-10.2243
▁desenvolver	-10.2244
mara	-10.225
▁realização	-10.225
▁investigação	-10.2255
▁inverno	-10.2255
▁vendas	-10.2256
▁fla	-10.2256
▁marcado	-10.2259
▁permitir	-10.2261
sca	-10.2262
▁gri	-10.2263
▁administrativa	-10.2268
▁hel	-10.2274
ér	-10.228
▁1920	-10.2286
▁1958	-10.2286
89	-10.2286
▁design	-10.2291
▁manda	-10.2305
▁jack	-10.2306
▁terem	-10.2308
▁assumir	-10.2312
▁motivo	-10.2317
▁mau	-10.2319
▁face	-10.2325
▁cer	-10.2326
▁servir	-10.2327
▁propriedades	-10.2337
vou	-10.2338
▁retorna	-10.2339
▁bola	-10.2341
▁solar	-10.2344
32	-10.2347
▁individual	-10.2347
▁identidade	-10.2349
▁artigos	-10.2351
▁fri	-10.2354
nico	-10.2354
▁constante	-10.2356
▁apoia	-10.2357
▁bas	-10.2357
art	-10.2361
▁consta	-10.2361
▁solução	-10.2366
▁samba	-10.2368
▁processos	-10.2369
▁joga	-10.2371
▁recém	-10.2372
bou	-10.2376
cial	-10.2377
▁redor	-10.2377
57	-10.2377
▁1970	-10.238
feira	-10.2382
bb	-10.2384
mont	-10.2389
▁trabalha	-10.2395
dina	-10.2396
72	-10.2397
▁romanos	-10.2397
▁etapa	-10.2399
▁diferença	-10.2402
▁apresentam	-10.2402
▁dinastia	-10.2407
▁ki	-10.2408
mica	-10.2409
▁senador	-10.2414
▁rocha	-10.2414
▁plataforma	-10.2415
▁monumento	-10.242
▁permanente	-10.2422
▁2012.	-10.2423
ndi	-10.2431
▁hotel	-10.2432
83	-10.2435
▁pala	-10.2439
chu	-10.244
cular	-10.2441
▁financeira	-10.2444
ei	-10.2446
▁utilizados	-10.2449
aram	-10.2455
▁tornaram	-10.2456
▁usuários	-10.2458
dd	-10.2459
▁utilização	-10.2463
▁planos	-10.247
▁vocalista	-10.2471
▁max	-10.2477
lista	-10.2478
▁catedral	-10.248
▁2010.	-10.248
plu	-10.2485
▁tocar	-10.2488
▁viu	-10.2488
▁tentar	-10.2489
▁questões	-10.2491
nto	-10.2491
ted	-10.2492
low	-10.2493
▁cin	-10.2494
sas	-10.25
▁disney	-10.251
atual	-10.2517
▁atuar	-10.2527
▁levado	-10.253
▁clara	-10.2532
▁mono	-10.2534
▁alberto	-10.2544
pare	-10.2548
ant	-10.2551
▁chile	-10.2552
▁chegaram	-10.2559
▁tradicionais	-10.2562
▁estende	-10.2563
▁dessas	-10.2565
fec	-10.2573
74	-10.2583
▁latino	-10.2586
▁sousa	-10.2591
back	-10.2592
tho	-10.2596
ração	-10.2597
sal	-10.2598
▁seguiu	-10.2602
+	-10.2603
▁aliança	-10.2603
vé	-10.2609
tó	-10.261
ata	-10.261
ah	-10.2611
▁quilômetros	-10.2613
ografia	-10.2616
▁cho	-10.2619
▁secretaria	-10.262
▁1987	-10.2621
▁feitos	-10.2623
▁ruas	-10.2628
usa	-10.2634
94	-10.2636
▁colocação	-10.2637
tino	-10.2645
governa	-10.2647
bin	-10.2647
▁naquela	-10.2648
▁estréia	-10.2649
bul	-10.265
69	-10.2655
ibi	-10.2657
▁sair	-10.2657
▁meu	-10.2662
▁poderes	-10.2663
pur	-10.2667
também	-10.2672
▁movimentos	-10.2673
▁indica	-10.2674
tive	-10.2674
▁matriz	-10.2676
▁enfrenta	-10.2676
dre	-10.2678
▁artística	-10.2679
ló	-10.2683
▁1999,	-10.2684
▁king	-10.2698
ministro	-10.27
tida	-10.2701
isti	-10.2702
▁clássico	-10.2707
▁poesia	-10.2709
▁russa	-10.2718
▁1985	-10.273
▁menino	-10.2732
▁1982	-10.2733
▁horizonte	-10.2736
▁obriga	-10.2737
versa	-10.2741
▁considera	-10.2741
▁regular	-10.2743
▁categorias	-10.2745
mg	-10.2746
cão	-10.2747
graduação	-10.2748
▁aqueles	-10.2749
poli	-10.2751
▁potência	-10.2751
cora	-10.2756
▁rápido	-10.2757
▁duração	-10.2761
▁mol	-10.2763
▁ten	-10.2764
▁religião	-10.2765
▁1950	-10.2765
▁ramo	-10.2766
gráfica	-10.2768
▁viaja	-10.2768
▁resulta	-10.2772
▁similar	-10.2773
▁execução	-10.2775
▁negra	-10.2779
▁media	-10.2782
idades	-10.2785
▁juntou	-10.2786
ec	-10.2787
▁senado	-10.2791
una	-10.2792
dal	-10.2793
scar	-10.2802
▁alemães	-10.2802
▁pele	-10.2804
vent	-10.2822
▁bandas	-10.2826
ph	-10.2828
▁manhã	-10.2832
▁gua	-10.2832
dir	-10.2832
pop	-10.2833
▁documentos	-10.2835
▁city	-10.2839
▁conheceu	-10.2845
▁2011.	-10.2846
▁antigas	-10.2851
tte	-10.2856
bala	-10.286
ês	-10.2861
▁ataques	-10.2863
ônio	-10.2864
▁dividida	-10.2864
gin	-10.2865
▁delas	-10.2868
81	-10.287
▁game	-10.2871
▁recusa	-10.2871
wer	-10.2873
▁japonesa	-10.2874
▁verdadeira	-10.2882
▁denominada	-10.2885
▁paróquia	-10.2886
▁global	-10.2888
▁próprios	-10.2891
ong	-10.2892
▁utilizando	-10.2899
▁ribeiro	-10.2901
▁prêmios	-10.2905
ólogo	-10.2906
pí	-10.2912
▁guitarrista	-10.2915
▁arco	-10.2921
▁povoado	-10.2921
▁ficaram	-10.2923
ár	-10.2924
▁arcebispo	-10.2927
ngo	-10.293
▁egito	-10.2934
▁regras	-10.2943
iga	-10.2943
▁fal	-10.2945
62	-10.2947
ish	-10.2954
▁econômica	-10.2955
▁film	-10.2956
▁1961	-10.2966
vul	-10.2967
age	-10.2968
▁trecho	-10.2972
▁brasília	-10.2974
▁característica	-10.2974
▁comemora	-10.2975
-2	-10.2975
▁caixa	-10.2975
iva	-10.2976
▁she	-10.2976
▁verdadeiro	-10.2977
cl	-10.2981
▁lan	-10.2982
82	-10.2983
ev	-10.2989
▁500	-10.2994
▁escritório	-10.2996
▁definido	-10.2998
▁joaquim	-10.3002
▁estuda	-10.3003
▁sobretudo	-10.3003
▁ze	-10.3005
sur	-10.3006
▁promover	-10.3013
▁oriente	-10.3013
▁infantil	-10.3014
lada	-10.3016
▁villa	-10.3022
ft	-10.3023
ice	-10.3024
▁animal	-10.3025
cção	-10.3026
▁completo	-10.3027
lógico	-10.3029
▁realmente	-10.3035
▁aplicação	-10.3037
▁cita	-10.3039
▁computador	-10.3044
▁louis	-10.3046
▁queria	-10.3047
cie	-10.305
▁talvez	-10.3052
teiro	-10.3053
▁lee	-10.3057
▁gravada	-10.3058
▁tiro	-10.3059
antes	-10.3061
▁ásia	-10.3069
▁1980,	-10.3074
bá	-10.3077
king	-10.3078
▁gui	-10.3078
▁muda	-10.3081
▁gabriel	-10.3086
63	-10.3086
▁mortos	-10.3087
▁deputados	-10.3088
▁rob	-10.3088
tru	-10.309
cker	-10.3095
▁rico	-10.3097
▁áustria	-10.3098
▁autoridades	-10.31
mino	-10.3102
▁públicos	-10.3104
▁juiz	-10.3107
▁exibida	-10.311
mil	-10.311
▁instrumentos	-10.3121
▁significativa	-10.3124
▁chamou	-10.3126
▁diário	-10.3127
▁cana	-10.3132
aria	-10.3136
▁sonho	-10.3144
▁praticamente	-10.3145
rita	-10.3146
▁aquela	-10.3146
▁coimbra	-10.3152
▁falha	-10.3155
▁denominação	-10.316
▁moradores	-10.3164
tê	-10.3165
fia	-10.3169
▁assassinato	-10.3169
91	-10.3175
▁índice	-10.3176
▁estabeleceu	-10.3184
▁elemento	-10.3188
▁pintor	-10.3189
▁urbana	-10.3191
ii	-10.3198
93	-10.3207
▁almeida	-10.3209
▁1998,	-10.3214
ete	-10.3214
▁cass	-10.3215
71	-10.3219
▁invasão	-10.3221
▁originais	-10.3221
med	-10.3223
▁chamar	-10.3224
▁trouxe	-10.3225
▁arquiteto	-10.3229
rea	-10.3229
cau	-10.323
▁atuais	-10.323
▁curto	-10.3231
nowiki	-10.3231
tividade	-10.3232
▁veículos	-10.3233
▁2013.	-10.3234
izados	-10.3241
rum	-10.3241
top	-10.3249
grama	-10.3251
onde	-10.3253
cú	-10.326
igo	-10.326
mad	-10.326
▁chamados	-10.3261
eza	-10.3261
▁podendo	-10.3269
▁retrata	-10.3269
_2	-10.327
estre	-10.3272
▁estações	-10.3274
▁ópera	-10.3278
▁encontrados	-10.328
▁hol	-10.328
▁alternativa	-10.3281
▁definição	-10.3287
▁serve	-10.3291
mão	-10.3293
▁necessária	-10.3294
▁1983	-10.3298
▁park	-10.3304
vido	-10.3305
=	-10.3307
rez	-10.3307
▁cemitério	-10.331
cent	-10.3317
▁treinamento	-10.3319
cc	-10.3322
▁registro	-10.3322
▁projecto	-10.3323
kan	-10.3326
▁1959	-10.3326
▁culturais	-10.3327
▁2014.	-10.3328
▁participantes	-10.333
▁salva	-10.3331
▁parlamento	-10.3331
▁doze	-10.3333
▁enfrentar	-10.3335
▁hip	-10.3342
▁órgão	-10.3345
▁tru	-10.3347
burgo	-10.3351
▁anual	-10.3351
▁feminina	-10.3353
▁bateria	-10.3354
▁desejo	-10.3357
▁pastor	-10.336
▁masculino	-10.3362
▁japonês	-10.3364
▁relativamente	-10.337
▁religiosa	-10.3376
▁mm	-10.3378
▁2009.	-10.338
73	-10.3383
cus	-10.3384
▁ações	-10.3392
▁red	-10.3401
▁árabe	-10.3402
▁redes	-10.3402
▁miss	-10.3411
▁frei	-10.3411
yer	-10.3411
sk	-10.3412
▁fer	-10.3415
rela	-10.3416
▁fotografia	-10.3418
▁fachada	-10.342
▁ácido	-10.342
▁saint	-10.3423
nny	-10.3424
▁encontrou	-10.3427
▁band	-10.3429
▁separa	-10.3431
▁privada	-10.3432
▁muita	-10.3436
▁fins	-10.3439
61	-10.3441
sul	-10.3446
pol	-10.3457
▁oceano	-10.3462
▁(20	-10.3463
▁mantém	-10.3473
more	-10.3475
tter	-10.3477
▁terreno	-10.3478
▁símbolo	-10.3478
▁carnaval	-10.3479
▁piano	-10.3487
▁breve	-10.3488
▁suporte	-10.3488
▁elétrica	-10.3492
▁textos	-10.3495
gal	-10.3507
ach	-10.3513
▁tivesse	-10.3513
▁vencer	-10.3517
quilo	-10.3518
▁filipe	-10.3525
▁igrejas	-10.3529
▁videoclipe	-10.3532
▁convento	-10.3532
▁líderes	-10.3533
▁lembra	-10.3539
▁ajudou	-10.354
▁elevada	-10.354
▁lenda	-10.3546
▁colaboração	-10.3547
▁integrantes	-10.3548
▁disputar	-10.3549
cir	-10.3554
ken	-10.3559
pô	-10.356
▁descrito	-10.3562
▁equipamentos	-10.3568
▁longe	-10.3569
ath	-10.357
anto	-10.3571
▁ya	-10.3572
▁frota	-10.3574
▁representação	-10.3577
▁trás	-10.3578
▁definida	-10.3591
nga	-10.3595
dida	-10.3595
▁will	-10.3595
▁1970,	-10.3598
▁realizadas	-10.3602
esco	-10.3602
▁olhos	-10.361
▁limite	-10.3614
▁científico	-10.3616
enta	-10.3617
▁acha	-10.3618
ella	-10.3619
rato	-10.3621
▁músicos	-10.3625
▁interno	-10.3632
▁trabalhando	-10.3636
à	-10.3636
▁un	-10.3638
▁yu	-10.3638
▁expressa	-10.3641
rj	-10.3643
▁pensamento	-10.3651
▁fortes	-10.3652
▁cadeira	-10.3655
▁organizações	-10.3657
▁teste	-10.3661
▁pinto	-10.3665
▁clássica	-10.367
far	-10.3674
fal	-10.3674
▁indivíduos	-10.3674
ônico	-10.3676
cí	-10.3677
▁brown	-10.3678
▁telenovela	-10.3679
▁ricardo	-10.3682
▁vermelha	-10.3687
▁ordens	-10.369
▁fil	-10.37
light	-10.3701
):	-10.3704
▁1984	-10.3707
ificação	-10.3708
▁boy	-10.3708
▁autoria	-10.3711
ena	-10.3712
▁notícias	-10.3712
campeão	-10.3715
▁berlim	-10.3718
▁laboratório	-10.3724
rina	-10.3724
stri	-10.3729
fei	-10.3731
▁ocupação	-10.3732
▁externa	-10.3733
ótica	-10.3734
▁1978	-10.3736
nci	-10.3738
▁continuar	-10.3744
▁bomba	-10.3745
▁edifícios	-10.3752
▁1944	-10.3754
▁hot	-10.3755
▁oportunidade	-10.3755
dido	-10.3756
diferencia	-10.376
▁combina	-10.376
spec	-10.3763
▁fm	-10.3765
▁fre	-10.3765
▁peru	-10.3769
ônia	-10.377
▁agente	-10.3774
▁cadeia	-10.3775
▁coisa	-10.3779
ssi	-10.3781
▁papéis	-10.3784
▁pertencente	-10.3785
cita	-10.3788
▁mora	-10.3797
▁ramos	-10.3797
▁assuntos	-10.3799
▁dedicado	-10.3808
▁wal	-10.3811
▁2016.	-10.3813
▁seminário	-10.3817
tivamente	-10.3819
▁pró	-10.3825
▁aquele	-10.3825
cat	-10.3827
▁produziu	-10.383
▁2015.	-10.383
▁empate	-10.3832
▁1979	-10.3834
▁daí	-10.3835
▁smith	-10.3837
▁leite	-10.3839
▁tradução	-10.384
bot	-10.3842
▁folhas	-10.3845
▁foca	-10.3846
▁st	-10.3849
▁cru	-10.3853
▁1954	-10.3855
▁bento	-10.3855
▁discos	-10.3856
▁mary	-10.386
side	-10.3871
▁1948	-10.3872
▁editor	-10.3873
▁equivalente	-10.3874
▁frank	-10.3878
▁formando	-10.3879
▁0,	-10.3889
▁irá	-10.389
▁particularmente	-10.3892
▁raça	-10.3898
▁oscar	-10.39
cé	-10.39
terra	-10.3905
▁interpretou	-10.3907
adores	-10.3912
▁apresentada	-10.3916
▁produz	-10.392
▁jornais	-10.3922
idas	-10.3925
▁carros	-10.3929
▁fama	-10.3929
dó	-10.3932
sch	-10.3934
▁larga	-10.3934
▁utilizar	-10.3935
▁leis	-10.3935
inhos	-10.3937
▁carl	-10.394
tl	-10.3942
▁dirigiu	-10.3942
linha	-10.3943
▁loja	-10.3944
bula	-10.3947
mou	-10.3952
▁west	-10.3953
▁defender	-10.3954
▁autoridade	-10.3956
▁desenvolve	-10.3961
primi	-10.3962
▁transferência	-10.3964
▁suíça	-10.3964
fus	-10.3966
▁alves	-10.3968
▁impedi	-10.3968
▁cerimônia	-10.397
▁olímpicos	-10.3972
▁1946	-10.3972
responsabilidade	-10.3972
▁quadrinhos	-10.3975
rena	-10.3975
vita	-10.3976
▁café	-10.3976
▁1974	-10.3977
▁celebra	-10.3977
▁1947	-10.3979
▁coloca	-10.3982
velmente	-10.3984
▁franceses	-10.3986
▁cast	-10.3987
ret	-10.3988
▁caráter	-10.3988
lisa	-10.399
ttle	-10.399
▁guia	-10.3993
▁assistência	-10.3994
miti	-10.3994
berto	-10.3998
cado	-10.4001
▁povos	-10.4004
▁coreia	-10.4004
▁latim	-10.4005
▁cunha	-10.4006
▁localidade	-10.4012
▁adaptação	-10.4015
▁haver	-10.4027
▁(17	-10.4039
▁2008.	-10.4042
▁extremamente	-10.4042
▁territórios	-10.4045
tadas	-10.4048
[	-10.4048
ática	-10.405
▁rápida	-10.4054
▁estátua	-10.4054
▁músico	-10.4055
itas	-10.4056
▁actividade	-10.4056
▁cresceu	-10.4061
classifica	-10.4062
▁sport	-10.4068
ual	-10.407
▁grã	-10.4072
▁neu	-10.4076
▁35	-10.4078
▁aumentar	-10.4078
iti	-10.408
wan	-10.4081
▁vir	-10.4086
tados	-10.4091
▁alcançar	-10.4092
▁lua	-10.4092
cin	-10.4092
▁funcionários	-10.4093
▁rural	-10.41
▁judeus	-10.4107
▁pernambuco	-10.4109
cta	-10.4111
ião	-10.4114
▁ceará	-10.4116
vá	-10.412
▁cama	-10.4123
▁suécia	-10.4124
▁significado	-10.4128
ile	-10.4133
▁recife	-10.4137
▁provas	-10.4143
▁baixos	-10.4148
▁1939	-10.4149
▁grão	-10.4149
▁instalação	-10.4155
▁professores	-10.4157
▁carne	-10.4159
▁expedição	-10.4163
▁1996,	-10.4167
▁1994,	-10.4169
edi	-10.4169
▁serão	-10.4175
ético	-10.4175
ence	-10.4176
cade	-10.4176
▁luis	-10.4183
lim	-10.4183
ius	-10.4196
ngu	-10.42
▁ideal	-10.42
gun	-10.4201
olo	-10.4205
▁sant	-10.4205
▁atravessa	-10.4218
ânica	-10.4219
nais	-10.4219
▁1997,	-10.4221
▁assis	-10.4223
▁anuncia	-10.4225
▁brit	-10.4226
pha	-10.4229
▁dificuldades	-10.4229
▁gi	-10.4234
▁ônibus	-10.4236
▁eixo	-10.4238
ben	-10.4244
▁gil	-10.425
▁coronel	-10.4251
▁gravações	-10.4253
▁shi	-10.4254
▁fran	-10.4264
▁washington	-10.4267
▁limita	-10.4268
▁descoberto	-10.427
enda	-10.4271
▁minha	-10.4272
▁direta	-10.4274
▁taça	-10.4275
dez	-10.4277
▁toma	-10.4279
▁evolução	-10.4282
▁ficção	-10.4284
▁pediu	-10.4285
▁conserva	-10.4285
▁promoção	-10.4286
cano	-10.4287
▁ideias	-10.429
constru	-10.4291
nic	-10.4292
▁aeronave	-10.4295
part	-10.4296
▁género	-10.4299
▁margem	-10.4301
▁2007.	-10.4303
▁nobre	-10.4303
▁uruguai	-10.4304
▁tomada	-10.4305
gr	-10.4308
▁tropical	-10.4308
core	-10.431
▁passo	-10.4311
▁war	-10.4312
ído	-10.4312
ição	-10.4312
▁dela	-10.4315
verso	-10.4316
▁recente	-10.4317
▁transferido	-10.4317
▁continente	-10.4317
▁impacto	-10.4323
bé	-10.4326
▁torres	-10.4331
▁gama	-10.4331
▁assistente	-10.4338
▁abriga	-10.4341
▁herdeiro	-10.4345
▁entertainment	-10.4348
▁densidade	-10.4354
ped	-10.4354
gente	-10.4356
▁turismo	-10.4356
▁juan	-10.4358
▁entrega	-10.436
dr	-10.4362
▁tio	-10.4363
ianos	-10.4363
▁posições	-10.4366
ibilidade	-10.4367
▁pergunta	-10.4367
▁kar	-10.437
án	-10.437
▁sudeste	-10.4372
mat	-10.4376
▁sexta	-10.4377
pr	-10.438
rna	-10.4382
▁1956	-10.4385
▁angola	-10.4386
pit	-10.439
▁singles	-10.4395
rk	-10.4395
▁céu	-10.4397
▁relatório	-10.4399
▁temporadas	-10.4399
▁sab	-10.44
▁sar	-10.4401
ale	-10.4403
▁horário	-10.4403
▁estando	-10.4404
▁grosso	-10.4409
▁discurso	-10.4411
▁traz	-10.4414
▁bru	-10.4416
▁possa	-10.4421
▁reunião	-10.4426
▁historiador	-10.4427
ícia	-10.4427
tismo	-10.4428
▁gás	-10.4434
▁confronto	-10.444
▁revelou	-10.4447
▁podemos	-10.4449
▁1955	-10.4454
▁alex	-10.4458
sos	-10.4459
▁juventude	-10.4461
▁1975	-10.4461
▁patrimônio	-10.4463
▁fluxo	-10.4463
gigante	-10.4463
▁candidatos	-10.4464
▁matt	-10.4465
feder	-10.4469
▁igualmente	-10.447
into	-10.4474
▁estruturas	-10.4478
▁determinada	-10.4478
ório	-10.4478
▁(1	-10.4478
▁inaugurado	-10.4479
ball	-10.4479
▁aspectos	-10.4488
▁aulas	-10.4492
▁exemplos	-10.4493
nie	-10.4494
vos	-10.4501
▁1938	-10.4502
▁entidade	-10.4505
af	-10.4505
▁sho	-10.4505
▁associada	-10.4515
ob	-10.4516
▁âmbito	-10.4516
▁gla	-10.4517
chen	-10.4525
▁acompanha	-10.4528
▁sun	-10.4529
▁nele	-10.4533
sor	-10.4533
ques	-10.4534
▁vendeu	-10.4535
fr	-10.4536
▁big	-10.4536
▁testes	-10.4538
▁lojas	-10.4538
ero	-10.4542
▁exerceu	-10.4543
▁conhecidas	-10.4543
▁inspirado	-10.4545
▁correspondente	-10.4545
▁campeões	-10.4548
▁1943	-10.4555
▁perder	-10.4556
▁meios	-10.4557
▁revistas	-10.4557
▁documentário	-10.4558
tam	-10.456
nus	-10.4565
▁desenvolvida	-10.4567
▁rui	-10.4569
pato	-10.457
cine	-10.457
▁permitiu	-10.4574
tista	-10.4574
▁vitórias	-10.4575
▁figuras	-10.4578
ncia	-10.4579
bos	-10.4579
▁contendo	-10.458
▁pr	-10.4581
gno	-10.4582
▁morre	-10.4587
▁eventualmente	-10.4587
americanos	-10.4594
▁comitê	-10.46
▁1930	-10.46
esti	-10.4605
▁rica	-10.4606
nger	-10.4608
▁mineiro	-10.4614
rece	-10.4617
quin	-10.4618
fic	-10.4618
▁1969	-10.4619
▁michel	-10.462
▁falar	-10.4625
▁1964	-10.4627
▁ataca	-10.4627
▁universitário	-10.4627
▁frase	-10.4638
cito	-10.464
▁espalha	-10.464
▁atores	-10.4641
under	-10.4641
▁fenômeno	-10.4641
▁lançar	-10.4643
tável	-10.4644
▁boca	-10.4644
gil	-10.4646
ços	-10.4648
▁epi	-10.4649
▁assina	-10.465
sou	-10.4651
▁may	-10.4652
▁sau	-10.4657
▁1973	-10.4658
esp	-10.4664
▁1957	-10.4664
fin	-10.4666
▁aponta	-10.4667
▁gran	-10.4671
▁rol	-10.4673
▁curva	-10.4678
▁disponíveis	-10.4679
▁mark	-10.4682
▁manutenção	-10.4684
▁abriu	-10.4688
▁espetáculo	-10.4691
itário	-10.4691
▁1981	-10.4692
▁bens	-10.4703
▁post	-10.4703
▁ur	-10.4703
▁competições	-10.4707
▁machado	-10.471
▁cá	-10.4715
▁compreende	-10.4717
ila	-10.4721
une	-10.4722
▁cro	-10.4725
▁máquina	-10.4728
▁mário	-10.4732
▁grécia	-10.4733
▁reação	-10.4736
gy	-10.4738
▁1976	-10.4742
▁henry	-10.4743
▁disputada	-10.4743
▁socialista	-10.4743
▁irlanda	-10.4745
▁compartilha	-10.4745
▁colabora	-10.4751
▁1953	-10.4752
só	-10.4753
▁abs	-10.4754
inos	-10.4754
ston	-10.4759
riz	-10.476
▁han	-10.4761
▁caracteriza	-10.4765
▁organiza	-10.4766
rac	-10.477
▁rose	-10.4771
zé	-10.4772
▁largo	-10.4772
sin	-10.4777
uru	-10.478
▁comunidades	-10.4781
▁árvore	-10.4782
▁matar	-10.4782
▁colocada	-10.4782
▁cuba	-10.4783
gur	-10.4785
reiro	-10.4786
▁má	-10.4788
▁fox	-10.4788
stein	-10.4791
end	-10.4796
py	-10.4798
▁deseja	-10.4801
▁avião	-10.4803
▁península	-10.4804
▁1941	-10.4806
▁seriado	-10.4809
▁dito	-10.481
▁máxima	-10.4811
▁intenção	-10.4812
▁permanece	-10.482
▁retornar	-10.4821
lor	-10.4821
thi	-10.4823
anos	-10.4824
▁métodos	-10.4825
▁representante	-10.483
▁poucas	-10.4832
▁atribui	-10.4832
▁enfrentou	-10.4833
▁sucessor	-10.4833
▁ilustra	-10.4837
▁círculo	-10.484
lê	-10.4845
mático	-10.4847
▁designado	-10.4849
▁sustenta	-10.485
▁it	-10.4853
gli	-10.4856
▁melo	-10.4858
▁declara	-10.4858
frag	-10.4859
rosa	-10.486
char	-10.486
▁marcos	-10.486
▁1942	-10.4861
▁kg	-10.4863
flu	-10.4866
ór	-10.4867
▁beleza	-10.4869
▁requer	-10.4874
▁fossem	-10.4877
nome	-10.4877
▁moderno	-10.4881
▁europeus	-10.4884
▁grave	-10.4886
▁ingressou	-10.4886
lic	-10.4886
▁mostrar	-10.4889
lândia	-10.4889
▁censo	-10.489
▁aniversário	-10.489
front	-10.4898
а	-10.4902
▁crítico	-10.4906
ture	-10.4909
▁windows	-10.4912
▁coluna	-10.4912
jar	-10.4916
▁adversário	-10.4919
▁rom	-10.4921
▁captura	-10.4921
ália	-10.4923
pio	-10.4933
tio	-10.4933
deiro	-10.4937
▁mapa	-10.4938
▁mer	-10.4941
▁importa	-10.4945
▁play	-10.4947
▁estabelecido	-10.4948
▁documento	-10.4948
cham	-10.4952
▁liber	-10.4955
posto	-10.4956
▁cobertura	-10.496
▁dedicada	-10.4963
ric	-10.4968
▁abrange	-10.4975
▁fugir	-10.4983
▁levanta	-10.4989
plane	-10.4998
▁relato	-10.4998
riano	-10.5004
explo	-10.5005
▁pés	-10.5008
ik	-10.5009
▁usuário	-10.501
▁chu	-10.5015
▁humor	-10.5018
▁pede	-10.5019
▁estabelecer	-10.5022
ming	-10.5023
▁garota	-10.5023
lidade	-10.5024
▁coro	-10.5031
▁instalado	-10.5032
▁permitindo	-10.5032
ificou	-10.5035
▁cartas	-10.5045
▁considerados	-10.5046
▁frederico	-10.5054
▁interpretação	-10.5056
polo	-10.5057
gress	-10.5057
▁toca	-10.5058
cop	-10.506
▁escultura	-10.5064
▁desafio	-10.5069
ity	-10.5076
espa	-10.5079
▁renda	-10.5079
lyn	-10.508
▁martins	-10.5086
▁invés	-10.5089
▁destas	-10.509
▁fin	-10.5096
▁tendência	-10.5099
▁página	-10.5108
▁xvii	-10.5112
▁princípios	-10.5116
key	-10.5117
▁ufc	-10.5117
pad	-10.5119
cli	-10.5119
▁direto	-10.5122
▁domina	-10.5124
modern	-10.5125
▁sp	-10.5126
▁1936	-10.5132
▁posterior	-10.5133
bili	-10.5133
▁dub	-10.5134
red	-10.5137
▁deriva	-10.5141
▁cantar	-10.5144
▁noroeste	-10.5148
mini	-10.5153
▁onda	-10.5153
▁vendido	-10.5153
▁destacam	-10.5155
▁árvores	-10.5156
▁1952	-10.5157
escreve	-10.5159
▁estratégia	-10.516
arca	-10.5161
▁joseph	-10.5162
▁médica	-10.5162
▁órgãos	-10.5163
gir	-10.5164
▁aliados	-10.5166
▁1995,	-10.5166
sio	-10.5166
▁souza	-10.5169
▁2017.	-10.5169
dou	-10.5172
wen	-10.5175
▁localização	-10.5176
▁mesa	-10.5177
▁3.	-10.5186
▁grand	-10.5187
▁usadas	-10.519
▁foco	-10.5193
muni	-10.5193
▁existentes	-10.5195
▁1968	-10.5197
▁representantes	-10.5204
▁segmento	-10.5205
ring	-10.5205
▁produtores	-10.5205
dente	-10.5206
▁atlético	-10.5209
▁jan	-10.521
▁próprias	-10.521
▁organizada	-10.521
▁milhares	-10.5214
win	-10.5216
ní	-10.5216
▁instalações	-10.5221
▁disciplina	-10.5222
▁indo	-10.5223
▁ocorrido	-10.5224
campeonato	-10.5225
▁caiu	-10.5228
▁braga	-10.523
▁tenente	-10.523
ás	-10.5239
▁1934	-10.5241
▁medidas	-10.5242
imo	-10.5243
▁vicente	-10.5243
▁2006.	-10.5245
▁exploração	-10.5246
▁júnior	-10.5249
▁hill	-10.5254
▁esperança	-10.5255
cut	-10.5258
▁nosso	-10.5259
but	-10.5266
old	-10.5271
▁pretende	-10.5271
illa	-10.5275
▁eng	-10.5278
lock	-10.5279
▁all	-10.5282
▁cristãos	-10.5287
▁investiga	-10.5289
▁zero	-10.529
▁faria	-10.5291
▁estabelecimento	-10.5294
▁cruzeiro	-10.5298
kov	-10.5301
elo	-10.5302
▁sócio	-10.5306
inter	-10.5307
tana	-10.5307
cel	-10.531
real	-10.5312
▁modalidade	-10.5314
▁mira	-10.5316
lig	-10.5321
▁fatores	-10.5322
lú	-10.5323
▁eletro	-10.5325
*	-10.5326
▁inde	-10.533
▁trinta	-10.5332
▁arena	-10.5332
▁ven	-10.5339
▁durou	-10.5341
▁suporta	-10.5344
▁professora	-10.5344
métrica	-10.5349
bilidade	-10.5349
▁hit	-10.5352
plica	-10.5353
▁1949	-10.5361
▁college	-10.5361
▁conversa	-10.5363
culo	-10.5364
tria	-10.5364
scri	-10.5367
▁1937	-10.5371
▁ritmo	-10.5371
▁1933	-10.5374
▁major	-10.5377
lino	-10.5379
▁canais	-10.5382
▁milhão	-10.5382
▁alguém	-10.5386
▁stu	-10.539
▁trem	-10.5392
▁pesca	-10.5393
▁auxiliar	-10.5399
bir	-10.54
▁realizados	-10.5401
▁1992,	-10.5402
▁air	-10.5402
izadas	-10.5403
▁consumo	-10.5404
▁culto	-10.5404
▁animação	-10.5405
ciais	-10.5407
▁•	-10.5413
▁ferr	-10.5414
ari	-10.5417
nar	-10.5417
▁gosta	-10.5418
▁1940	-10.542
▁vontade	-10.5422
▁obs	-10.5425
▁lopes	-10.5426
▁exercício	-10.5427
baixo	-10.5427
▁doenças	-10.5427
▁explora	-10.5427
▁associado	-10.543
ento	-10.5431
▁cavaleiro	-10.5432
pou	-10.5433
▁apresentações	-10.5439
▁resultou	-10.5439
▁marcelo	-10.544
tum	-10.5441
▁perdido	-10.5441
all	-10.5443
▁debate	-10.5447
▁bloco	-10.5451
mbro	-10.5454
▁mont	-10.5456
ium	-10.5459
nan	-10.5459
▁relata	-10.5463
▁reconhecida	-10.5464
▁company	-10.5465
▁estu	-10.5467
tex	-10.5467
▁alimentos	-10.547
▁estrangeiros	-10.5472
▁remo	-10.5479
▁inteiro	-10.548
paro	-10.5482
água	-10.5483
▁adquiriu	-10.5485
mel	-10.549
▁paredes	-10.549
rista	-10.549
▁violência	-10.5493
▁mostrou	-10.5493
▁enviou	-10.5493
▁tenham	-10.5499
final	-10.55
cido	-10.5503
▁chave	-10.5506
▁camp	-10.5515
▁terrestre	-10.5518
tron	-10.5521
▁missões	-10.5523
▁entregue	-10.5527
▁vas	-10.5528
▁paraguai	-10.5529
▁conquistar	-10.5529
▁motores	-10.553
▁aparição	-10.5531
▁moda	-10.5535
▁joe	-10.5536
▁bacia	-10.5536
▁jackson	-10.5546
▁segura	-10.5547
▁league	-10.5549
▁exclusivamente	-10.5552
▁barão	-10.5553
▁legislativa	-10.5554
zan	-10.5555
vie	-10.5561
lec	-10.5562
▁capítulo	-10.5565
▁cata	-10.5566
▁video	-10.5571
▁rodovia	-10.5572
▁sucedido	-10.5574
▁capi	-10.5574
▁mecanismo	-10.5574
deira	-10.5575
ok	-10.5575
▁iso	-10.5578
row	-10.558
▁bill	-10.5583
▁inimigos	-10.5588
nca	-10.559
▁responsáveis	-10.5595
▁32	-10.56
ifica	-10.56
▁empregado	-10.5601
âm	-10.5603
▁obtido	-10.5603
▁derrotou	-10.5605
▁dj	-10.5605
▁bob	-10.5606
▁leitura	-10.5606
▁espiritual	-10.5613
▁incluído	-10.5616
ude	-10.5616
▁mini	-10.5616
▁instrumento	-10.5622
▁1972	-10.5623
ani	-10.5624
▁temos	-10.5626
▁ocupou	-10.5634
▁crescente	-10.5634
▁vinha	-10.564
▁ala	-10.564
▁estágio	-10.5644
▁convite	-10.5644
▁dividido	-10.5649
▁revelado	-10.5651
▁acadêmico	-10.5652
▁camisa	-10.5652
gene	-10.5655
▁amiga	-10.5655
▁1951	-10.5656
new	-10.5658
ld	-10.566
cola	-10.566
▁metropolitana	-10.5663
▁sobrinho	-10.5664
oli	-10.5665
▁chicago	-10.5665
▁construiu	-10.5667
▁rival	-10.5669
lus	-10.5671
▁portas	-10.5672
rat	-10.5673
▁redução	-10.5684
▁galeria	-10.5685
▁acusado	-10.5688
ska	-10.5691
▁madrid	-10.5692
▁descobriu	-10.5693
▁notável	-10.5695
▁liderado	-10.5697
▁char	-10.5701
▁ampla	-10.5708
▁bell	-10.5713
rc	-10.5714
gê	-10.5721
▁oferta	-10.5723
time	-10.5725
▁gen	-10.5728
▁descrita	-10.5737
▁poderoso	-10.5741
▁quadra	-10.5745
▁óleo	-10.5745
▁restaurante	-10.5752
ort	-10.5752
▁gravar	-10.5756
filia	-10.5759
▁actualmente	-10.576
▁encontrada	-10.5763
ind	-10.5769
▁tam	-10.5771
▁observa	-10.5775
▁percebe	-10.5778
▁jazz	-10.5784
▁alega	-10.5787
▁sir	-10.5787
▁grega	-10.5791
▁espada	-10.5792
cara	-10.5792
▁margens	-10.5795
▁podia	-10.5796
▁300	-10.5796
nch	-10.5804
org	-10.5807
▁aparentemente	-10.5813
▁garantir	-10.5813
▁relacionados	-10.5815
▁constitucional	-10.5816
mod	-10.582
="	-10.582
▁publica	-10.5821
▁batista	-10.5823
▁sinais	-10.5826
miss	-10.5831
▁barco	-10.5831
vic	-10.5835
▁fru	-10.5836
sumi	-10.5837
▁turco	-10.5838
▁republicano	-10.5843
▁high	-10.5844
▁escritos	-10.5846
▁vocais	-10.5846
▁simon	-10.5851
▁1935	-10.5852
▁porte	-10.5855
out	-10.5855
▁básico	-10.5855
▁1960,	-10.5856
▁arre	-10.5858
▁2019,	-10.5861
futebolista	-10.5864
fel	-10.5865
▁1991,	-10.5867
senti	-10.5867
▁fusão	-10.5868
inten	-10.5869
▁mega	-10.5876
▁unidas	-10.5877
mí	-10.5881
non	-10.5887
▁começar	-10.5893
▁poderiam	-10.5895
▁tai	-10.5897
▁planeja	-10.5897
▁pico	-10.59
osas	-10.5904
▁enredo	-10.5906
▁intitulada	-10.5907
▁liberal	-10.591
▁sara	-10.591
pd	-10.591
▁exame	-10.5911
▁national	-10.5916
shin	-10.5918
▁casar	-10.5921
▁queima	-10.5925
▁prima	-10.5928
▁recebendo	-10.5929
▁limites	-10.5931
▁inaugurada	-10.5932
▁argumento	-10.5932
hr	-10.5935
▁aborda	-10.5937
pata	-10.5939
▁doutrina	-10.594
tero	-10.5943
▁green	-10.5944
▁seca	-10.5944
▁constituído	-10.5946
mic	-10.5946
uí	-10.5948
nio	-10.5949
jos	-10.5949
dire	-10.5957
gor	-10.5959
?"	-10.596
▁mtv	-10.5964
▁1932	-10.5966
▁international	-10.5967
▁extremo	-10.597
just	-10.5971
▁conseguiram	-10.5972
▁secreta	-10.5973
town	-10.5973
▁colocar	-10.5973
▁clo	-10.5975
▁padrões	-10.5975
500	-10.5977
▁cidadãos	-10.5981
▁concentração	-10.5981
juvenil	-10.5983
▁barros	-10.5986
alimenta	-10.5989
▁naval	-10.5991
tempo	-10.5994
▁usou	-10.6003
▁fundadores	-10.6007
uais	-10.6007
radi	-10.6009
▁ps	-10.6009
▁literária	-10.601
▁rod	-10.602
tag	-10.602
bie	-10.6027
▁júlio	-10.6029
ótico	-10.603
▁inúmeras	-10.6031
▁familiar	-10.6041
▁moral	-10.6046
▁beira	-10.6049
▁condenado	-10.6051
▁amplia	-10.6059
sher	-10.6061
▁fácil	-10.6064
▁mendes	-10.6064
▁prazo	-10.6066
▁pinturas	-10.6068
ey	-10.6071
ced	-10.6072
▁componentes	-10.6074
▁motivos	-10.6075
▁proporciona	-10.6079
nheiro	-10.608
▁ambiental	-10.608
▁arquivos	-10.6083
ticamente	-10.6083
ácio	-10.6085
super	-10.6089
produ	-10.6089
▁vira	-10.609
▁calor	-10.6091
▁conselheiro	-10.6093
▁avança	-10.6094
billboard	-10.6095
zy	-10.6098
▁exceção	-10.6099
▁daquela	-10.6099
▁trama	-10.6101
▁representado	-10.6102
▁casca	-10.6107
▁personalidade	-10.6113
▁facilmente	-10.6128
▁acumula	-10.613
3,	-10.6133
▁argentino	-10.6134
▁atribuído	-10.6139
▁hollywood	-10.6142
▁parceiro	-10.6145
iba	-10.6146
dan	-10.6146
▁funcionamento	-10.6147
▁montanhas	-10.6147
▁popularidade	-10.6148
▁voto	-10.6151
▁aires	-10.6151
▁inimigo	-10.6152
▁fur	-10.6154
hy	-10.6157
▁roda	-10.6158
▁up	-10.6164
fun	-10.6167
▁bolsa	-10.6167
▁representando	-10.6169
▁teologia	-10.6169
▁câmera	-10.6172
▁salão	-10.6172
▁veículo	-10.6174
hab	-10.6178
▁conservação	-10.6178
▁aparelho	-10.6183
érico	-10.6183
▁nasce	-10.6186
cap	-10.6191
▁retirada	-10.6191
▁lava	-10.6192
▁confirma	-10.6197
▁aeronaves	-10.6198
▁bairros	-10.6198
▁youtube	-10.6202
▁separada	-10.6204
bretanha	-10.6205
▁arquivo	-10.6205
▁rios	-10.6207
▁descendentes	-10.621
day	-10.621
ceu	-10.6214
▁representar	-10.6216
▁ligado	-10.6217
▁sexto	-10.6218
▁nela	-10.622
voca	-10.6225
▁tempestade	-10.6232
▁sá	-10.6232
▁1918	-10.6232
▁futura	-10.6234
punha	-10.6235
▁selo	-10.6236
▁move	-10.6238
rand	-10.624
▁transmitido	-10.624
▁privado	-10.6241
▁ke	-10.6242
▁cam	-10.6242
human	-10.6244
cil	-10.6247
stru	-10.6247
▁órbita	-10.6248
▁royal	-10.6251
yn	-10.6254
▁contemporânea	-10.6254
▁incorpora	-10.6258
▁aço	-10.6261
▁curitiba	-10.6262
▁vocal	-10.6264
▁apresentando	-10.6264
▁santiago	-10.6265
kar	-10.6265
▁índios	-10.6274
▁fan	-10.6275
pet	-10.628
▁frequenta	-10.6281
▁jr	-10.6285
▁amizade	-10.6287
▁tese	-10.6287
▁referido	-10.629
▁bélgica	-10.6292
mada	-10.6293
▁tan	-10.6294
▁euro	-10.6295
▁1945	-10.6299
lum	-10.63
▁criando	-10.6304
600	-10.631
▁especializada	-10.6313
▁integral	-10.6319
elétrico	-10.632
▁canadense	-10.6326
amente	-10.6327
▁salas	-10.6329
psi	-10.633
jun	-10.6331
▁chart	-10.6334
▁avanço	-10.6336
▁fotos	-10.6337
▁vaz	-10.6341
▁prof	-10.6343
▁aparência	-10.6348
ende	-10.6348
▁lutar	-10.635
%)	-10.635
▁fol	-10.6354
▁lobo	-10.6359
▁pagamento	-10.6359
▁round	-10.6361
▁pior	-10.6362
▁aves	-10.6365
▁esforço	-10.6365
▁infl	-10.637
▁venezuela	-10.637
▁civis	-10.6371
▁executado	-10.6372
hom	-10.6375
▁distribui	-10.6377
▁goiás	-10.6381
▁incluída	-10.6384
mico	-10.6385
▁existir	-10.6386
▁imigrantes	-10.6387
▁scott	-10.639
▁amador	-10.6394
ambi	-10.6396
▁concerto	-10.6404
-3	-10.6405
▁possivelmente	-10.6406
▁interpreta	-10.6407
▁+	-10.6407
sie	-10.6407
▁drogas	-10.6416
▁atuando	-10.642
ux	-10.642
▁destinado	-10.6423
gol	-10.6424
▁proprietário	-10.6432
▁adam	-10.6432
800	-10.6436
▁atleta	-10.644
▁(2	-10.6441
▁mínimo	-10.6443
▁pol	-10.6446
esque	-10.6447
▁feliz	-10.645
tir	-10.6451
▁perdendo	-10.6452
cali	-10.6453
▁1929	-10.6456
▁montanha	-10.6456
▁excelente	-10.6457
▁semelhantes	-10.6457
dência	-10.6458
▁seres	-10.6459
▁guara	-10.6461
▁herói	-10.6461
rino	-10.6461
ane	-10.6463
▁morrer	-10.6469
play	-10.6472
▁patriarca	-10.6473
▁pertencia	-10.6476
lip	-10.6483
▁1993,	-10.6485
▁básica	-10.6485
▁bis	-10.6485
▁sacerdote	-10.6487
▁próximos	-10.6493
pont	-10.6494
▁lucas	-10.6495
▁bordo	-10.6496
bach	-10.6497
▁constantinopla	-10.6499
ificada	-10.65
▁pinheiro	-10.65
▁viva	-10.6506
bó	-10.6507
▁jones	-10.651
▁ausência	-10.651
▁disputado	-10.6516
aba	-10.6518
▁sudoeste	-10.6521
ington	-10.6522
▁orientação	-10.6522
▁resolução	-10.6524
▁estatuto	-10.6524
▁rouba	-10.6529
▁elite	-10.6529
ip	-10.6529
▁bela	-10.6531
▁mecânica	-10.6532
▁descreveu	-10.6535
▁recomenda	-10.6535
▁recusou	-10.6535
▁1910	-10.6537
quando	-10.6538
▁critica	-10.6542
▁wil	-10.6543
▁acompanhado	-10.6546
▁edward	-10.6547
ving	-10.6551
ças	-10.6553
run	-10.6558
▁pá	-10.6559
▁marcha	-10.6559
▁mantendo	-10.656
▁alterações	-10.656
▁american	-10.6562
camp	-10.6564
cionista	-10.6567
▁determina	-10.6567
get	-10.6568
eg	-10.657
confi	-10.657
rigi	-10.6571
inger	-10.6579
ógrafo	-10.658
▁brig	-10.6584
▁viola	-10.6584
▁carr	-10.6586
▁atletas	-10.6592
▁humanidade	-10.6593
▁décimo	-10.6595
▁hipótese	-10.6598
hou	-10.6599
▁aero	-10.66
▁integrante	-10.6602
▁secundário	-10.6603
▁nega	-10.6607
▁abrir	-10.661
▁estaduais	-10.6612
▁muralha	-10.6612
▁online	-10.6613
▁chinesa	-10.6615
▁estudante	-10.6617
▁esportes	-10.6618
▁2018.	-10.6622
▁gro	-10.6623
▁win	-10.6623
ade	-10.6626
audi	-10.6631
▁terminal	-10.6631
▁domingo	-10.6635
flor	-10.6635
▁salto	-10.6636
gie	-10.6639
▁assunto	-10.664
▁gor	-10.6644
▁night	-10.6645
▁transição	-10.6645
nário	-10.6648
ís	-10.6649
good	-10.6649
▁sor	-10.6651
▁integrar	-10.6651
urban	-10.6653
▁classificada	-10.6653
▁cart	-10.6654
▁cônsul	-10.6658
▁soviético	-10.6658
▁cel	-10.666
▁gonçalves	-10.6663
▁ativa	-10.6665
▁demanda	-10.6668
pot	-10.667
itária	-10.6672
▁ste	-10.6672
over	-10.6672
▁belas	-10.6675
ificado	-10.6676
▁gosto	-10.6676
▁kim	-10.6679
stica	-10.6679
ction	-10.6679
▁brilhante	-10.6682
▁fluminense	-10.6683
gada	-10.6684
▁q	-10.6689
▁retoma	-10.669
▁barcelona	-10.6692
já	-10.6694
▁incêndio	-10.6695
▁introdução	-10.6695
▁pioneiro	-10.6695
▁retrato	-10.6696
▁indivíduo	-10.6698
▁conhecer	-10.6703
▁dedicou	-10.6705
▁vivem	-10.6714
▁câncer	-10.6718
▁esportivo	-10.6721
▁1919	-10.6721
▁contava	-10.6721
wei	-10.6722
hor	-10.6723
▁fc	-10.6725
mari	-10.6728
▁possíveis	-10.6732
▁atacante	-10.6734
▁formal	-10.6737
▁integrado	-10.6741
▁estabelecida	-10.6741
▁formam	-10.6741
▁cerco	-10.6743
master	-10.6744
▁detalhes	-10.6747
▁vítima	-10.6749
cento	-10.6749
arte	-10.675
▁sofre	-10.6755
▁piso	-10.676
▁nomeadamente	-10.6764
▁dc	-10.6765
jor	-10.6769
▁junior	-10.677
▁actual	-10.677
book	-10.6777
▁desenhos	-10.6777
▁song	-10.6781
▁seguro	-10.6783
▁estaria	-10.6786
▁licença	-10.6787
mond	-10.6791
▁ocorrer	-10.6792
▁(15	-10.6793
▁quinze	-10.6793
▁iniciado	-10.6794
ínio	-10.6795
▁pará	-10.6797
▁1988,	-10.6797
▁pagar	-10.6797
▁regionais	-10.6799
nc	-10.6802
▁crença	-10.6804
▁gira	-10.6804
▁perde	-10.6806
és	-10.6807
inf	-10.6808
▁dada	-10.6809
nik	-10.6811
▁xv	-10.6814
▁dona	-10.6815
▁amplamente	-10.6816
▁clientes	-10.6817
▁soares	-10.6819
▁policial	-10.682
rome	-10.6826
▁viagens	-10.6837
▁pio	-10.6838
▁classes	-10.684
▁preciso	-10.6843
▁fle	-10.6844
▁with	-10.6845
▁lagoa	-10.6846
ç	-10.6847
▁1917	-10.6848
▁esforços	-10.6856
▁roupas	-10.6858
pac	-10.6858
ncial	-10.6861
queira	-10.6864
▁cura	-10.6865
▁julgamento	-10.6865
▁experiências	-10.6866
inas	-10.6867
ular	-10.6869
zio	-10.6871
▁domingos	-10.6875
cionado	-10.688
zz	-10.6887
pole	-10.6889
▁escravos	-10.6893
▁divulgação	-10.6894
▁participaram	-10.6896
▁momentos	-10.6912
▁preço	-10.6912
▁exibição	-10.6912
zes	-10.6913
▁forçado	-10.6914
▁portal	-10.6914
▁agentes	-10.6917
fá	-10.6918
▁queda	-10.692
▁rodrigo	-10.6921
▁levaram	-10.6922
yu	-10.6923
▁desempenha	-10.6924
▁arqui	-10.6928
▁receita	-10.6931
bon	-10.6934
▁regimento	-10.6935
▁fortemente	-10.6935
mus	-10.6936
univers	-10.694
▁recentes	-10.6941
▁uns	-10.6942
▁colo	-10.6944
izando	-10.6945
▁sus	-10.6947
reco	-10.6948
▁assinatura	-10.6949
quo	-10.695
▁sebastião	-10.6951
▁produtora	-10.6951
▁habilidades	-10.6958
cultura	-10.6959
▁mus	-10.6961
libera	-10.6963
▁ficava	-10.6964
pina	-10.6965
▁tensão	-10.6967
hel	-10.6967
▁onze	-10.6967
▁usam	-10.6971
▁filo	-10.6974
space	-10.6976
douro	-10.6976
▁conclusão	-10.6977
nato	-10.6978
▁concluiu	-10.6978
▁implica	-10.6979
▁irmãs	-10.6981
geno	-10.6981
african	-10.6982
▁restante	-10.6982
zinho	-10.6983
▁votação	-10.6987
▁150	-10.6988
▁tur	-10.6993
▁aplicações	-10.6993
▁conservador	-10.6994
▁45	-10.6997
fil	-10.6997
▁paraíba	-10.7001
roy	-10.7002
▁(16	-10.7002
▁séries	-10.7004
vision	-10.7005
▁existente	-10.7006
açúcar	-10.7007
▁hiper	-10.701
▁encontrava	-10.7014
200	-10.7017
▁diferenças	-10.7018
▁infantaria	-10.7023
▁2019	-10.7025
▁dirigida	-10.7028
queiro	-10.7028
▁notas	-10.7028
nea	-10.7032
▁assume	-10.7032
lice	-10.7033
hl	-10.7033
▁teo	-10.7037
▁conecta	-10.7043
▁1931	-10.7044
▁treino	-10.7045
▁negócio	-10.7046
pf	-10.7047
▁feira	-10.7047
▁baterista	-10.7047
rar	-10.705
▁andar	-10.7058
▁citado	-10.7059
pper	-10.7062
▁aéreo	-10.7066
▁campeã	-10.7066
kon	-10.7068
▁assinado	-10.707
▁mur	-10.7072
▁participações	-10.7072
▁distante	-10.7073
kai	-10.7077
▁colonial	-10.7078
▁mensagem	-10.7078
▁centenas	-10.7078
▁descobrir	-10.7085
cis	-10.7085
▁terminar	-10.7092
▁1922	-10.7093
▁produções	-10.7094
▁lesão	-10.7094
▁exceto	-10.7095
▁contar	-10.7098
▁iniciada	-10.7099
▁estima	-10.7099
▁yo	-10.71
metragem	-10.7108
▁vereador	-10.7108
▁indígenas	-10.711
▁classificado	-10.7116
eto	-10.7123
▁conflitos	-10.7123
▁contemporâneo	-10.7126
▁dimensões	-10.7126
▁conceição	-10.7126
hé	-10.7129
▁1914	-10.7129
▁integrou	-10.7129
rias	-10.7131
▁ordena	-10.7132
jin	-10.7136
▁aparecem	-10.7136
liv	-10.7137
guard	-10.7138
▁eletrônica	-10.7138
▁superiores	-10.714
▁aspecto	-10.7141
▁andrade	-10.7142
▁fio	-10.7143
ette	-10.7146
▁2005.	-10.7149
nei	-10.7149
down	-10.7151
cn	-10.7159
▁razões	-10.7159
▁university	-10.7159
feito	-10.716
▁house	-10.7161
▁victor	-10.7165
fim	-10.7167
▁trabalhava	-10.7167
▁sintomas	-10.7171
▁religioso	-10.7172
▁narra	-10.7174
▁sérgio	-10.7177
▁gold	-10.7177
▁vasco	-10.7178
▁situações	-10.7187
bad	-10.7187
▁1926	-10.7188
▁polônia	-10.7189
▁parede	-10.7193
entre	-10.7195
▁sucessão	-10.7198
▁intervenção	-10.7198
▁zonas	-10.7201
▁regressa	-10.7202
ína	-10.7203
mpa	-10.7204
▁dinamarca	-10.7204
▁surge	-10.7205
mei	-10.7209
▁ganhando	-10.7211
▁equação	-10.7214
prote	-10.7214
public	-10.7217
▁distingui	-10.7219
▁intensa	-10.7221
▁vieira	-10.7223
▁white	-10.7224
uch	-10.7224
▁escritores	-10.7225
▁tim	-10.7229
blue	-10.7234
▁litoral	-10.7234
rup	-10.7238
pão	-10.7244
tom	-10.7245
▁fifa	-10.7246
▁primária	-10.7247
▁integração	-10.7248
nz	-10.7253
dinâmica	-10.7253
limit	-10.7255
▁posteriores	-10.7255
▁lar	-10.7256
▁frequente	-10.726
▁substituindo	-10.7262
ilu	-10.7268
▁mix	-10.7275
tú	-10.728
▁live	-10.728
▁síria	-10.7284
nza	-10.7287
▁stone	-10.7288
▁pc	-10.729
▁teresa	-10.729
▁marques	-10.7294
▁xii	-10.7294
▁escócia	-10.7298
_3	-10.7299
▁transporta	-10.7302
▁especificamente	-10.7302
▁coleta	-10.7302
▁walter	-10.7307
▁volumes	-10.7307
▁chinês	-10.7314
aceae	-10.7315
ding	-10.7315
▁colocou	-10.7317
▁lógica	-10.7318
▁restantes	-10.7319
▁envolvendo	-10.732
▁1989,	-10.7322
▁gabinete	-10.7323
hei	-10.7324
▁anton	-10.7325
anti	-10.733
▁derivado	-10.733
▁seção	-10.7331
cult	-10.7331
▁protesto	-10.7332
sel	-10.7337
▁proteger	-10.7338
▁declaração	-10.7341
▁últimas	-10.7344
▁aprovação	-10.7344
uc	-10.7347
porta	-10.7349
▁habilidade	-10.7349
▁virtude	-10.7354
penha	-10.7356
▁aí	-10.7359
ona	-10.7361
▁altas	-10.7362
▁amostra	-10.7363
▁satisfa	-10.7366
▁altos	-10.7366
▁pacientes	-10.7366
▁cirurgia	-10.7369
▁hidro	-10.737
▁publicados	-10.7372
▁chão	-10.7375
▁inteligência	-10.7378
▁procedimento	-10.7378
▁fernandes	-10.7381
ave	-10.7382
▁composições	-10.7387
▁patente	-10.7388
▁mito	-10.739
▁testemunha	-10.7393
mato	-10.7394
ation	-10.7395
ílio	-10.7404
▁destruição	-10.7406
ili	-10.7406
▁interesses	-10.7408
▁utilizadas	-10.7409
▁adultos	-10.7411
▁consolida	-10.7412
cionou	-10.7414
brasil	-10.7415
▁anexa	-10.742
100	-10.7422
▁estatística	-10.7424
▁receberam	-10.7425
ille	-10.7426
▁vítimas	-10.7428
▁preta	-10.7429
▁vinho	-10.7432
▁cabelo	-10.7435
▁rejeita	-10.7446
▁literário	-10.7449
▁mario	-10.7449
▁melhorar	-10.7455
▁províncias	-10.7456
▁ocorrem	-10.7457
▁cavalo	-10.7459
▁paga	-10.7461
assi	-10.7462
)"	-10.7464
▁award	-10.7465
▁páginas	-10.7471
▁placar	-10.7472
ā	-10.7477
▁xi	-10.7478
▁constituída	-10.748
▁publicações	-10.748
veja	-10.748
▁transferiu	-10.748
▁pontuação	-10.7483
fant	-10.7483
lares	-10.7485
▁inúmeros	-10.7486
▁home	-10.7486
▁pago	-10.7492
regi	-10.7492
▁400	-10.7493
nh	-10.7494
▁ascensão	-10.7495
▁recupera	-10.7496
▁1912	-10.7499
▁substituída	-10.75
ell	-10.7501
▁concertos	-10.7503
▁dependendo	-10.7503
▁pedras	-10.7511
alva	-10.7512
▁bernardo	-10.7512
▁corpos	-10.7512
▁free	-10.7512
▁destacou	-10.7513
▁origina	-10.7514
made	-10.7515
▁tran	-10.7516
▁associados	-10.7517
▁flamengo	-10.7517
▁apelido	-10.7518
chefe	-10.7518
carna	-10.7523
▁atlântico	-10.7523
▁consegui	-10.7524
phil	-10.7526
▁esteja	-10.753
▁concílio	-10.7531
▁albert	-10.7533
loca	-10.7535
neta	-10.7536
▁bilhões	-10.7536
▁passam	-10.7537
▁wilson	-10.7539
▁administrativo	-10.7541
essa	-10.7542
ña	-10.7542
▁concorda	-10.7545
▁acervo	-10.7546
▁encontradas	-10.7546
ciano	-10.7548
▁centros	-10.7549
▁artilharia	-10.7551
▁convocado	-10.7553
▁convence	-10.7558
▁experimenta	-10.7559
▁mike	-10.7565
▁religiosas	-10.757
▁jornalismo	-10.757
▁ditadura	-10.7577
mbu	-10.7577
▁visa	-10.7583
mate	-10.7586
▁cedo	-10.7587
▁restos	-10.7589
▁arthur	-10.7589
▁vento	-10.759
▁ferroviária	-10.7592
▁mantido	-10.7592
▁determinar	-10.7597
▁ninguém	-10.7598
hard	-10.7599
work	-10.76
yan	-10.76
▁cargos	-10.7601
▁1924	-10.7601
▁boas	-10.7602
▁primavera	-10.7605
▁propósito	-10.7608
▁obrigado	-10.7611
▁leon	-10.7614
kha	-10.7619
▁marcada	-10.7623
gle	-10.7625
▁restauração	-10.7627
sim	-10.7628
▁modernos	-10.7629
▁jerusalém	-10.763
uto	-10.7632
▁extinção	-10.7633
▁rosto	-10.7638
▁nazista	-10.7661
▁cabe	-10.7663
▁vizinha	-10.7665
▁empréstimo	-10.7665
▁opinião	-10.7665
▁intervalo	-10.7665
estabelece	-10.7666
":	-10.7668
▁inauguração	-10.7669
▁nelson	-10.7669
ída	-10.7671
▁avaliação	-10.7672
▁filhas	-10.7676
▁vender	-10.7685
▁animado	-10.7686
▁festas	-10.7689
▁registrado	-10.7691
izações	-10.7692
▁computadores	-10.7695
head	-10.7697
nomina	-10.7703
▁vantagem	-10.7706
▁otomano	-10.7709
▁1950,	-10.7711
2)	-10.7711
▁recuperar	-10.7712
▁exposições	-10.7722
▁amarelo	-10.7722
giu	-10.7723
▁aceitou	-10.7724
rig	-10.7726
clo	-10.7726
▁poemas	-10.7728
▁largura	-10.7728
▁extinta	-10.7728
▁comumente	-10.773
sat	-10.7735
▁perspectiva	-10.7735
ange	-10.7737
▁profunda	-10.7737
▁rafael	-10.7738
▁avó	-10.7738
casa	-10.7739
▁medo	-10.774
rock	-10.774
▁designação	-10.7741
▁braço	-10.7742
iais	-10.7746
▁médicos	-10.7751
▁center	-10.7753
▁cair	-10.7754
▁1928	-10.7756
melhor	-10.776
▁quadros	-10.7765
▁championship	-10.7766
▁tupi	-10.7773
▁ip	-10.7786
▁máquinas	-10.7786
▁bruno	-10.7786
oeste	-10.7788
▁coelho	-10.7795
▁doutorado	-10.7796
▁filósofo	-10.7802
▁cavalaria	-10.7802
▁comics	-10.7809
nel	-10.7809
▁jurídica	-10.7811
▁idéia	-10.7811
▁maranhão	-10.7818
▁convenção	-10.7824
▁lançaram	-10.7826
▁fases	-10.7826
reno	-10.7833
▁resolver	-10.7834
▁fechado	-10.7835
▁solicita	-10.7837
▁experimento	-10.7838
▁produzidos	-10.7838
cient	-10.7838
▁abre	-10.784
▁santuário	-10.784
▁poderá	-10.7842
▁extinto	-10.7847
▁nomeou	-10.7853
bene	-10.7858
▁operacional	-10.7861
▁anualmente	-10.7862
▁acreditava	-10.7865
▁espaços	-10.7868
tária	-10.787
▁defendeu	-10.7871
▁treze	-10.7872
▁individuais	-10.7872
▁históricos	-10.7879
▁paula	-10.788
▁pessoais	-10.7883
▁troféu	-10.7892
▁esportiva	-10.7892
▁ligada	-10.7897
ério	-10.7899
▁grava	-10.7899
▁lateral	-10.79
▁agrícola	-10.7902
ídio	-10.7902
▁anúncio	-10.7904
bis	-10.7908
lógicos	-10.791
▁tentando	-10.791
▁barba	-10.7911
▁aplicada	-10.7912
nou	-10.7913
▁árabes	-10.7913
▁dúvida	-10.7915
▁lados	-10.7915
lit	-10.7916
▁goleiro	-10.7918
▁1927	-10.792
▁líquido	-10.7921
flex	-10.7922
▁johnson	-10.7923
-0	-10.7925
sua	-10.7929
ástico	-10.793
▁mala	-10.7932
▁tanque	-10.7935
▁terror	-10.7937
▁fabricante	-10.7938
▁defende	-10.794
slav	-10.7942
▁viena	-10.7942
árias	-10.7943
▁1986,	-10.7944
▁chamadas	-10.7945
▁dificuldade	-10.7948
má	-10.7948
▁projetado	-10.7951
bli	-10.7953
▁ken	-10.7956
kel	-10.796
lem	-10.7961
tões	-10.7965
▁implementa	-10.7967
fili	-10.7968
▁director	-10.7974
▁práticas	-10.7974
▁substituir	-10.7974
and	-10.7978
▁açores	-10.7985
▁cálculo	-10.7986
▁sétimo	-10.7987
▁algoritmo	-10.7993
▁ph	-10.7997
▁ranking	-10.7999
▁paralelo	-10.8
▁origens	-10.8003
açu	-10.8008
▁interpretado	-10.8009
▁gre	-10.801
roma	-10.801
ênio	-10.801
▁gêneros	-10.801
▁anime	-10.8011
lação	-10.8012
grande	-10.8012
teu	-10.8013
▁afasta	-10.8013
▁escolher	-10.8017
▁arranjo	-10.8019
▁lidera	-10.8021
▁registros	-10.8024
gá	-10.8024
▁familiares	-10.8027
iste	-10.8029
▁reforça	-10.803
▁pacífico	-10.8032
▁negocia	-10.8033
cari	-10.8042
▁united	-10.8043
ónica	-10.8044
pho	-10.8045
escu	-10.8053
▁gelo	-10.8055
▁confirmou	-10.8055
▁independentes	-10.8057
▁ultrapassa	-10.8058
▁marquês	-10.8062
▁1911	-10.8063
▁selecionado	-10.8065
▁buenos	-10.8068
▁remonta	-10.8071
▁recuperação	-10.8072
sey	-10.808
categoria	-10.8081
▁altamente	-10.8082
▁aventura	-10.8085
▁vídeos	-10.8086
▁residente	-10.8089
▁santana	-10.8091
▁ordenado	-10.8092
hol	-10.8093
▁frio	-10.8093
▁religiosos	-10.8094
▁riqueza	-10.8095
▁monge	-10.8098
▁viajou	-10.8099
▁acrescenta	-10.8101
▁ato	-10.8103
tano	-10.8103
▁2004.	-10.8104
▁holanda	-10.8105
▁xiii	-10.8106
▁desconhecido	-10.8108
ndu	-10.811
▁comerciante	-10.8114
▁moscou	-10.8115
▁mérito	-10.8118
▁areia	-10.8118
vari	-10.8119
diver	-10.812
▁monitor	-10.8121
▁penal	-10.8121
▁consciência	-10.8121
▁apaixona	-10.8122
▁pouca	-10.8122
patri	-10.8125
▁passos	-10.8126
▁1925	-10.8132
▁vii	-10.8133
▁necessita	-10.8138
▁vota	-10.8138
▁separação	-10.814
▁admira	-10.8142
▁especifica	-10.8142
▁cami	-10.8143
cruz	-10.8144
maria	-10.815
há	-10.8156
▁angel	-10.8157
live	-10.8159
▁estimada	-10.8161
▁ordenou	-10.8161
▁barbosa	-10.8164
yama	-10.8165
▁nuclear	-10.8165
ches	-10.8168
▁aplicativo	-10.8171
▁paixão	-10.8171
▁norma	-10.8179
gão	-10.8181
ícula	-10.8182
▁morro	-10.8182
▁http	-10.8183
vit	-10.8184
▁vargas	-10.8184
▁afeta	-10.8186
▁garoto	-10.8188
▁street	-10.8188
▁descrição	-10.8188
▁erro	-10.8188
prova	-10.819
▁rever	-10.819
anjo	-10.8194
▁amante	-10.8194
▁causou	-10.8194
▁danos	-10.8195
▁pic	-10.8195
uca	-10.8198
▁êxito	-10.8201
gru	-10.8203
▁definitivamente	-10.8211
▁nick	-10.8213
▁senso	-10.8215
и	-10.8217
▁desloca	-10.8219
▁escudo	-10.8219
pression	-10.8222
▁opção	-10.8223
▁contos	-10.8227
▁aluno	-10.8229
▁roger	-10.8232
▁negativa	-10.8232
▁caminhos	-10.8233
hn	-10.8235
▁turquia	-10.8235
▁confirmado	-10.8239
▁definir	-10.824
▁dan	-10.8241
▁alice	-10.8244
▁clipe	-10.8244
dá	-10.8244
▁disto	-10.8244
cena	-10.8245
▁criador	-10.8245
coreano	-10.8247
▁diâmetro	-10.8248
▁linear	-10.8248
fici	-10.8248
▁diploma	-10.825
▁supremo	-10.8254
▁famosos	-10.8255
▁metro	-10.8256
▁terminando	-10.8268
▁persa	-10.8269
▁anna	-10.827
gni	-10.8272
▁ocupado	-10.8274
▁avô	-10.8274
▁descon	-10.8275
▁altar	-10.8278
▁jun	-10.8279
▁segredo	-10.8282
▁marc	-10.8292
▁atacar	-10.8292
▁limitada	-10.8295
▁alca	-10.8296
▁partiu	-10.8296
▁culpa	-10.8303
▁secundária	-10.8305
come	-10.831
fest	-10.8312
▁identificado	-10.8317
▁escolhida	-10.8322
▁recon	-10.8322
llo	-10.8323
о	-10.8325
▁enterrado	-10.8325
▁cujos	-10.8326
▁1923	-10.8331
▁respeita	-10.8332
▁finalidade	-10.8333
▁referências	-10.8333
▁bíblia	-10.8338
fone	-10.8339
▁marcando	-10.8341
▁deserto	-10.8345
▁teixeira	-10.8349
▁guimarães	-10.8352
▁agregado	-10.8353
cast	-10.8357
▁cobre	-10.8363
revis	-10.8364
▁medieval	-10.8369
▁fita	-10.8369
▁proveniente	-10.8372
▁colegas	-10.8376
▁manifesta	-10.8377
dig	-10.8379
▁maia	-10.8381
óide	-10.8382
▁encerra	-10.8391
▁cristal	-10.8393
ecido	-10.8395
▁dedicar	-10.8396
▁oficina	-10.84
▁kat	-10.8401
▁possam	-10.8403
▁raízes	-10.8403
▁1921	-10.8406
▁petróleo	-10.8406
sucedida	-10.8406
elas	-10.8409
▁dun	-10.841
▁salvar	-10.8411
▁aprovado	-10.8412
▁objetivos	-10.8417
▁ângulo	-10.842
▁palestra	-10.842
▁dispositivo	-10.8423
▁ensina	-10.8424
vidas	-10.8426
▁pictures	-10.8427
▁fator	-10.843
▁campanhas	-10.843
▁mostrando	-10.843
▁eliminado	-10.843
mante	-10.843
▁1985,	-10.8431
ful	-10.8432
▁administrador	-10.8435
terapia	-10.8438
▁vapor	-10.8438
boli	-10.8441
▁peixes	-10.8441
▁neuro	-10.8442
▁escapar	-10.8444
▁módulo	-10.8444
▁percurso	-10.8445
nice	-10.8446
ume	-10.8448
▁belém	-10.8455
▁sessão	-10.8457
▁crimes	-10.8465
▁georg	-10.8466
▁manuscrito	-10.8468
▁contribui	-10.8469
▁transforma	-10.8472
tie	-10.8472
▁psico	-10.8472
▁williams	-10.8472
▁documenta	-10.8473
▁variante	-10.8475
▁gerar	-10.8475
christ	-10.8475
▁jane	-10.8477
▁convidados	-10.8479
▁liderada	-10.848
▁encerrou	-10.8482
▁orçamento	-10.8482
▁juntar	-10.8482
aki	-10.8482
rim	-10.8482
▁franquia	-10.8482
rit	-10.8488
▁maestro	-10.8489
cp	-10.849
▁presa	-10.8493
▁atitude	-10.8497
▁estrelado	-10.8498
▁sujeito	-10.8499
▁disponibiliza	-10.8499
▁folha	-10.8507
-17	-10.8512
eno	-10.8516
▁corinthians	-10.8519
▁recurso	-10.8522
▁laterais	-10.8523
▁vieram	-10.8525
▁movimenta	-10.8526
▁ep	-10.8529
▁define	-10.8529
▁pudesse	-10.8532
▁kra	-10.8533
▁miranda	-10.8538
grega	-10.8538
smo	-10.8538
▁vigor	-10.854
▁embaixador	-10.8541
▁promove	-10.8543
▁trio	-10.8544
▁helena	-10.8546
▁escolar	-10.8547
▁influente	-10.8549
▁graus	-10.8554
▁geográfica	-10.8555
enberg	-10.8559
▁americanos	-10.8564
lhos	-10.8566
▁marcas	-10.8567
▁ocupar	-10.8568
cô	-10.8569
▁steve	-10.857
▁capazes	-10.8571
▁testa	-10.8572
▁positivo	-10.8575
▁lind	-10.8577
▁doce	-10.8582
ejo	-10.8583
▁tratar	-10.8585
▁virtual	-10.8586
▁mencionado	-10.8589
▁nascida	-10.8589
▁corridas	-10.8594
ília	-10.8603
▁brasileiras	-10.8603
▁dirigir	-10.8603
▁afirmando	-10.8608
íssimo	-10.8608
▁externo	-10.861
visi	-10.8611
eli	-10.8612
guer	-10.8613
▁palmeiras	-10.862
▁lançados	-10.8621
mata	-10.8622
fó	-10.8623
▁esquema	-10.8624
▁municipais	-10.8627
▁primeiramente	-10.8629
imi	-10.8629
cip	-10.863
▁conquistando	-10.8635
gram	-10.8636
ômico	-10.8637
▁jim	-10.8639
▁capturado	-10.8641
▁incidente	-10.8641
▁necessidades	-10.8641
▁torcida	-10.8643
▁divisões	-10.8644
ngue	-10.8648
deus	-10.8654
teca	-10.8655
▁planejamento	-10.8655
▁moeda	-10.8657
pú	-10.8658
pressão	-10.8659
▁testamento	-10.8662
lot	-10.8667
▁armadas	-10.8668
heart	-10.8669
nov	-10.8669
▁teriam	-10.8675
▁atende	-10.8678
▁comparação	-10.868
▁assassino	-10.868
▁parada	-10.8681
▁contando	-10.8682
▁noruega	-10.8683
▁começando	-10.8685
▁governante	-10.8686
show	-10.8686
▁visitantes	-10.8688
▁semelhança	-10.869
▁relacionadas	-10.8691
versão	-10.8692
▁menina	-10.8692
α	-10.8693
▁motiva	-10.8697
▁tido	-10.8698
▁substituição	-10.8701
▁inspiração	-10.8703
▁profundidade	-10.8704
▁2000.	-10.8708
▁peixe	-10.8711
▁limitado	-10.8713
lógica	-10.8713
▁cris	-10.8714
▁texas	-10.8715
▁completar	-10.8717
dí	-10.872
ight	-10.873
▁transformação	-10.8735
▁psicologia	-10.8736
ânico	-10.8738
▁relevo	-10.8739
▁sepultado	-10.8742
▁diego	-10.8744
▁introduzido	-10.8744
▁cup	-10.8746
▁controlado	-10.8749
▁relevante	-10.8749
▁perigo	-10.8752
▁palma	-10.8754
▁marte	-10.8755
▁hipo	-10.8755
lson	-10.8756
▁abandonou	-10.8757
▁aviões	-10.8757
▁entidades	-10.8758
▁oitava	-10.876
▁iniciar	-10.876
▁democrático	-10.876
▁min	-10.8762
inci	-10.8764
▁poema	-10.8764
-15	-10.8766
box	-10.8771
enca	-10.8772
▁instalada	-10.8774
▁circulação	-10.8774
▁britânicos	-10.878
▁talento	-10.8784
gri	-10.8784
▁incluiu	-10.8785
▁considerando	-10.8786
neto	-10.8787
▁causar	-10.8789
▁fila	-10.8789
mundo	-10.8791
▁positiva	-10.8792
pus	-10.8793
▁implantação	-10.8793
▁falecido	-10.8796
▁camada	-10.8796
▁vivia	-10.88
organ	-10.8801
▁parlamentar	-10.8804
▁virgem	-10.8804
anga	-10.8805
cência	-10.8809
▁direcção	-10.881
▁alimentar	-10.8815
▁cuidados	-10.8816
▁adicional	-10.8818
espi	-10.8818
site	-10.8821
leiro	-10.8821
▁predominante	-10.8822
quí	-10.8828
▁hay	-10.883
▁narrativa	-10.8831
▁1987,	-10.8833
grupo	-10.8836
▁jacob	-10.8836
▁young	-10.8836
▁firma	-10.8838
▁migra	-10.884
▁baía	-10.8842
ál	-10.8842
not	-10.8842
▁bernard	-10.8845
▁cientistas	-10.8847
▁guerreiro	-10.8852
▁derruba	-10.8852
▁protestante	-10.8852
▁acontecimentos	-10.8853
▁controlar	-10.8853
▁armazena	-10.8857
▁rev	-10.8857
fico	-10.8861
▁hugo	-10.8864
fasci	-10.8865
▁fruto	-10.8866
▁spi	-10.8868
▁amazonas	-10.8874
çado	-10.8874
bora	-10.8875
▁interpretar	-10.8876
ópolis	-10.8879
▁colômbia	-10.8881
ines	-10.8888
▁cobra	-10.8888
▁católicos	-10.8888
▁cardoso	-10.8888
▁zelândia	-10.8889
▁abandonar	-10.8889
pondo	-10.889
dino	-10.889
▁zi	-10.889
▁jornada	-10.8891
▁reconhece	-10.8893
▁dita	-10.8898
▁italianos	-10.8899
▁nomeada	-10.8904
▁candidatura	-10.8909
▁adaptado	-10.8912
otto	-10.8912
▁reúne	-10.8913
▁olímpico	-10.8913
▁chan	-10.8915
credit	-10.8917
arru	-10.8918
itu	-10.8919
▁fixo	-10.8921
▁estreita	-10.8922
▁jogando	-10.8925
▁infra	-10.8925
jó	-10.8925
▁apartamento	-10.8927
heim	-10.8927
burn	-10.8929
▁1915	-10.8932
▁envolvido	-10.8932
tradicionalmente	-10.8933
▁constantino	-10.8935
▁influências	-10.8935
tente	-10.8936
▁vegetação	-10.8938
▁basílica	-10.8938
▁registra	-10.894
ef	-10.8942
regula	-10.8946
▁deixado	-10.8947
aux	-10.8947
▁combinação	-10.8947
nês	-10.8948
▁presos	-10.8949
rub	-10.8953
▁uniforme	-10.8953
▁continental	-10.8956
hoo	-10.8957
▁sente	-10.8958
▁livres	-10.8959
mera	-10.8959
▁atribuída	-10.896
tinha	-10.8964
▁destinada	-10.8966
▁tribo	-10.8969
bank	-10.8969
diana	-10.8969
▁derrotar	-10.8969
▁capítulos	-10.897
▁carbono	-10.8971
▁fuga	-10.8972
▁garcia	-10.8977
▁tony	-10.8978
unda	-10.898
agens	-10.898
zon	-10.8985
▁resta	-10.8988
▁beat	-10.899
▁paradas	-10.8991
▁específico	-10.8991
▁fornecer	-10.8994
▁criados	-10.8996
▁tribos	-10.8996
inhas	-10.9003
▁túmulo	-10.9003
▁dispositivos	-10.9008
dista	-10.9008
▁envia	-10.9008
▁cliente	-10.9011
▁estimula	-10.9014
▁filmagens	-10.9014
▁carolina	-10.9016
▁vidro	-10.9016
▁bond	-10.9016
▁convoca	-10.9017
gues	-10.9019
▁clínica	-10.9021
▁previsto	-10.9028
▁ruínas	-10.9028
▁expulso	-10.9028
▁conquistado	-10.903
etti	-10.9035
▁católico	-10.9035
▁propaganda	-10.9036
▁celular	-10.9037
ax	-10.9038
grado	-10.9039
▁provável	-10.9039
▁bebida	-10.904
1)	-10.9043
▁taylor	-10.9043
▁island	-10.9045
▁interface	-10.9047
▁tarefa	-10.9051
▁monarca	-10.9051
▁aparecer	-10.9052
▁inscrição	-10.9054
▁descendente	-10.9058
esto	-10.906
▁1982,	-10.9062
▁confederação	-10.9065
ên	-10.9065
liza	-10.9068
▁ouvir	-10.9069
▁raio	-10.9069
▁pilotos	-10.9071
ículo	-10.9074
▁sbt	-10.9075
▁alcança	-10.9075
▁ficam	-10.9076
▁congregação	-10.9077
▁viii	-10.9078
▁partidos	-10.9079
▁kid	-10.9079
vila	-10.908
▁prolonga	-10.9081
wn	-10.9081
▁iniciais	-10.9082
▁gp	-10.9086
ológica	-10.9087
cios	-10.9087
▁quente	-10.909
▁‘	-10.9092
▁tentativas	-10.9092
▁levada	-10.9094
▁1900	-10.9098
▁model	-10.91
▁astro	-10.9103
adora	-10.9106
▁life	-10.9107
▁transformou	-10.9108
bun	-10.911
▁campinas	-10.9112
▁1913	-10.9123
▁apresentador	-10.9123
some	-10.9123
pli	-10.9124
▁pacote	-10.9127
▁sagrado	-10.9128
▁colina	-10.9131
▁assassinado	-10.9131
▁comprou	-10.9131
▁2003.	-10.9135
▁ocorreram	-10.9139
andra	-10.9139
▁insu	-10.9141
▁1930,	-10.9143
▁aproveita	-10.9145
span	-10.9147
▁divide	-10.9148
▁reduzir	-10.9148
fos	-10.9149
▁lote	-10.915
▁mostrado	-10.9152
general	-10.9152
▁parcialmente	-10.9153
elle	-10.9154
corri	-10.9155
▁significativo	-10.9161
batida	-10.9161
riana	-10.9162
▁billboard	-10.9165
gueira	-10.9166
▁décima	-10.9167
▁homo	-10.9167
▁representada	-10.9168
▁preparação	-10.9168
▁1979,	-10.9168
▁baixas	-10.9168
▁representam	-10.9171
vor	-10.9173
timo	-10.9175
▁deuses	-10.9176
bara	-10.9181
▁missionário	-10.9186
estrutura	-10.9187
▁incon	-10.9188
▁encomenda	-10.9189
▁equilíbrio	-10.9189
▁indicação	-10.9189
bur	-10.9191
▁resolveu	-10.9191
▁eleita	-10.9191
tol	-10.9191
▁vela	-10.9194
lay	-10.9195
▁microsoft	-10.9197
ém	-10.9197
▁open	-10.9198
▁colocados	-10.9203
vu	-10.9207
▁digitais	-10.9208
cei	-10.9208
▁concluída	-10.9209
pmdb	-10.9209
▁retirar	-10.9215
piro	-10.9218
▁colunas	-10.9219
▁transformar	-10.922
idae	-10.9222
than	-10.9223
▁placa	-10.9225
▁afro	-10.9229
▁liderou	-10.923
▁karl	-10.9231
▁conceitos	-10.9234
▁geografia	-10.9235
▁ducado	-10.9236
▁registrada	-10.9237
▁fria	-10.9238
anima	-10.9241
▁alba	-10.9242
▁1974,	-10.9243
▁hungria	-10.9244
▁menciona	-10.9246
▁xiv	-10.9247
▁usina	-10.9248
direct	-10.9249
feita	-10.9251
▁usava	-10.9251
band	-10.9253
▁group	-10.9253
▁começam	-10.9255
▁libertação	-10.9259
▁dono	-10.9261
▁missa	-10.9261
▁gente	-10.9263
▁resultando	-10.9267
color	-10.9267
ácia	-10.9269
▁cristão	-10.9272
ânio	-10.9279
tância	-10.9281
▁mim	-10.9282
▁calendário	-10.9282
forme	-10.9282
▁soluções	-10.9282
▁conto	-10.9283
house	-10.9284
▁companheiro	-10.9284
▁mestrado	-10.9285
▁notícia	-10.9288
▁tocou	-10.9289
▁reuniu	-10.9289
itos	-10.929
nita	-10.9294
cross	-10.9295
▁cinematográfica	-10.9296
▁pega	-10.93
▁frequentou	-10.93
▁populações	-10.93
simula	-10.93
▁depressão	-10.9302
▁atmosfera	-10.9304
▁chapa	-10.9304
paul	-10.9305
▁traje	-10.9305
▁repórter	-10.9308
▁tradições	-10.9308
▁exatamente	-10.9308
▁manoel	-10.9308
▁clássicos	-10.931
▁france	-10.931
▁influencia	-10.9311
▁verifica	-10.9312
▁hino	-10.9314
ui	-10.9318
grada	-10.9319
gó	-10.9319
▁cristianismo	-10.9323
▁puni	-10.9326
▁itens	-10.9329
kie	-10.933
▁historiadores	-10.933
gne	-10.9332
▁vencedora	-10.9334
▁contribuiu	-10.9334
▁incluir	-10.9335
▁got	-10.9337
▁(3	-10.9338
▁apresentava	-10.9342
▁existia	-10.9343
correio	-10.9346
▁chaves	-10.936
▁1916	-10.936
▁comprar	-10.9364
▁compostos	-10.9365
íssima	-10.9367
defini	-10.9368
▁sr	-10.9369
▁povoação	-10.937
▁classificou	-10.9371
cid	-10.9374
▁rumo	-10.9374
▁combustível	-10.9375
nell	-10.9376
▁passe	-10.9376
▁alimentação	-10.9377
▁argumenta	-10.9379
prefeito	-10.938
▁relativa	-10.9385
▁duplo	-10.939
▁lúcio	-10.939
▁liberta	-10.9391
▁trava	-10.9392
consequentemente	-10.9396
tologia	-10.9396
▁rádios	-10.9399
▁controla	-10.9399
▁rab	-10.9399
▁euros	-10.94
▁lutou	-10.94
▁adquirido	-10.9401
▁irregular	-10.9401
▁interessante	-10.9405
▁hy	-10.9407
▁clark	-10.9409
▁consulta	-10.941
▁influenciado	-10.9411
▁partículas	-10.9413
eça	-10.9414
▁metrô	-10.9416
▁voleibol	-10.9418
▁telefone	-10.9421
governador	-10.9421
▁adiciona	-10.9423
▁obtendo	-10.9424
▁referir	-10.9429
bras	-10.9429
▁vendidos	-10.943
download	-10.9431
▁democracia	-10.9431
▁000	-10.9434
▁reivindica	-10.9435
▁your	-10.9439
▁eleitos	-10.944
▁bbc	-10.9442
jud	-10.9445
lhão	-10.9447
▁ocupada	-10.9447
▁progresso	-10.945
mana	-10.9452
fera	-10.9453
▁impedir	-10.9454
▁diminui	-10.9456
▁ferramentas	-10.9457
▁studios	-10.9458
▁visando	-10.9459
▁gato	-10.9459
iri	-10.946
▁investimento	-10.9461
▁apoiado	-10.9461
▁aplicado	-10.9461
▁www	-10.9462
▁morta	-10.9464
▁proeminente	-10.9465
histori	-10.9468
▁adolescente	-10.9469
▁assessor	-10.9469
▁semifinal	-10.947
▁sucessos	-10.947
▁administra	-10.9473
▁atinge	-10.9473
▁quadrados	-10.9473
aranha	-10.9473
▁armado	-10.9476
▁esperado	-10.9481
shire	-10.9482
▁fred	-10.9482
▁desfile	-10.9485
▁mediante	-10.9485
▁abordagem	-10.9486
▁mesmos	-10.9488
▁muro	-10.9488
▁maca	-10.9488
stin	-10.9488
etas	-10.949
▁estrangeira	-10.9492
▁exerce	-10.9492
н	-10.9496
▁objectivo	-10.9496
nascido	-10.9498
▁araújo	-10.95
▁policiais	-10.9501
▁vera	-10.9502
▁circular	-10.9505
▁cem	-10.9506
▁gaúcho	-10.9507
▁america	-10.9509
▁interpretada	-10.951
▁festivais	-10.9511
▁clã	-10.9511
▁reforço	-10.9515
▁negros	-10.9518
▁territorial	-10.9522
▁river	-10.9523
you	-10.9526
▁duarte	-10.9528
▁janelas	-10.953
▁ocorrência	-10.953
▁competir	-10.9534
ceno	-10.9534
▁apoiar	-10.9534
▁palm	-10.9535
crist	-10.9535
▁certificado	-10.9537
▁atender	-10.9538
▁percorre	-10.9538
▁justifica	-10.9539
▁próximas	-10.9539
▁estudiosos	-10.9546
▁intelectual	-10.9549
▁amplo	-10.9551
▁aplica	-10.9552
▁períodos	-10.9554
tró	-10.9555
▁brian	-10.9555
▁christian	-10.9555
▁fantasia	-10.9561
▁organizou	-10.9561
ésia	-10.9563
▁francisca	-10.9566
▁temperaturas	-10.9566
naldo	-10.9568
▁boi	-10.9569
▁desconhecida	-10.9571
▁democrática	-10.9572
▁organizar	-10.9574
whi	-10.9577
▁jeff	-10.9577
▁consideradas	-10.958
trans	-10.958
▁técnicos	-10.9585
▁retirado	-10.9587
▁premiado	-10.9589
▁playstation	-10.9595
guin	-10.9595
▁sand	-10.9598
▁cauda	-10.96
▁ligados	-10.96
lion	-10.9601
▁vencendo	-10.9602
▁questiona	-10.9603
▁consumi	-10.9604
▁1908	-10.9607
pila	-10.9607
▁consultor	-10.9607
▁construções	-10.9608
▁dialeto	-10.9608
▁alterna	-10.9609
história	-10.9617
▁olho	-10.9619
00.000	-10.9619
▁dívida	-10.9619
▁1990.	-10.9619
luz	-10.9619
▁hard	-10.9621
е	-10.9622
war	-10.9625
▁baixista	-10.9626
nhe	-10.9629
▁converte	-10.9633
▁1975,	-10.9634
quete	-10.9634
▁notáveis	-10.9636
▁negociações	-10.9636
▁certos	-10.9637
limp	-10.9644
▁surgiram	-10.9645
▁gala	-10.9648
▁convidada	-10.965
▁fecha	-10.9651
lhado	-10.9654
ref	-10.9655
▁constituinte	-10.9656
▁rendeu	-10.9661
▁matemático	-10.9664
▁variáveis	-10.9664
▁oferecer	-10.9674
ique	-10.9676
▁team	-10.9679
▁coberta	-10.968
▁custos	-10.9684
▁variações	-10.9685
▁nomeação	-10.9686
▁exige	-10.9689
alter	-10.9689
▁esconde	-10.969
▁alexander	-10.9692
▁campeonatos	-10.9695
▁bacharel	-10.9695
▁regente	-10.9699
conte	-10.9702
jou	-10.9705
peli	-10.9708
minar	-10.9711
▁equipamento	-10.9712
▁abc	-10.9714
▁permitem	-10.9716
▁colega	-10.9717
ici	-10.9718
▁trajetória	-10.9719
▁vizinhos	-10.972
▁amarela	-10.9721
▁dominante	-10.9721
▁sugere	-10.9722
▁petro	-10.9723
▁sofrer	-10.9725
▁mesmas	-10.9727
▁mai	-10.9728
zia	-10.9729
▁viúva	-10.973
▁exílio	-10.9731
bica	-10.9731
▁castela	-10.9732
vide	-10.9733
▁chico	-10.9736
▁plataformas	-10.9737
▁trazer	-10.9738
úria	-10.9739
guerra	-10.9743
lógicas	-10.9745
vista	-10.9745
bico	-10.9746
▁todavia	-10.9749
velo	-10.9749
▁nação	-10.9758
▁fortuna	-10.9758
▁condena	-10.9764
▁candidata	-10.9765
▁destruir	-10.9765
▁toneladas	-10.9769
▁especializado	-10.9773
▁autonomia	-10.9777
▁comunicações	-10.9778
▁útil	-10.9778
illo	-10.9781
▁nintendo	-10.9781
▁ondas	-10.9782
▁passava	-10.9783
ferida	-10.9784
▁átomo	-10.9785
▁kong	-10.9786
▁network	-10.9789
▁conter	-10.9789
meno	-10.9792
ográfico	-10.9793
▁dimensão	-10.9793
▁tripulação	-10.9793
bru	-10.9794
▁atos	-10.9795
▁envolvida	-10.9801
▁poderosa	-10.9804
▁lourenço	-10.9804
▁caetano	-10.9808
▁depósito	-10.9808
▁analisa	-10.981
▁distritos	-10.9813
▁idioma	-10.9813
▁aquisição	-10.9816
éticos	-10.9818
▁elizabeth	-10.982
ôn	-10.9822
raça	-10.9823
iça	-10.9824
▁pesquisadores	-10.9825
▁ferrovia	-10.9827
▁fundos	-10.9827
style	-10.9827
▁relacionado	-10.9827
▁power	-10.9831
▁visconde	-10.9832
▁cooper	-10.9836
▁2002.	-10.984
nil	-10.9843
▁ganho	-10.9844
▁simultaneamente	-10.9844
▁pedir	-10.9849
▁africana	-10.9858
▁especula	-10.9858
▁variação	-10.9858
▁gera	-10.9862
sson	-10.9862
marca	-10.9863
▁magalhães	-10.9867
▁colaborou	-10.9867
▁computação	-10.9868
▁borda	-10.9868
▁identificação	-10.9869
▁sozinho	-10.9869
▁possibilita	-10.9871
▁diretoria	-10.9872
▁espectadores	-10.9874
pela	-10.988
▁possuir	-10.9881
take	-10.9881
▁sons	-10.9882
brand	-10.9885
▁mundiais	-10.9887
▁gau	-10.9889
love	-10.9889
qualifica	-10.9891
▁incluía	-10.9897
lev	-10.9901
hang	-10.9901
quil	-10.9907
▁recruta	-10.9907
▁persegui	-10.9909
▁anunciada	-10.9909
rote	-10.9915
▁destruída	-10.9917
▁philip	-10.9919
right	-10.9922
▁macau	-10.9922
▁atração	-10.9923
▁marketing	-10.9923
▁gales	-10.9924
▁ocasiões	-10.9927
▁bay	-10.9928
▁sorte	-10.993
▁acusa	-10.993
▁reeleito	-10.9931
eja	-10.9931
▁vias	-10.9932
gina	-10.9933
formula	-10.9937
ónia	-10.9938
▁sabia	-10.994
▁orienta	-10.9941
▁sou	-10.9941
pá	-10.9942
▁discussão	-10.9943
▁medalhas	-10.9944
▁status	-10.9947
▁resultante	-10.9953
▁financeiro	-10.9958
▁marvel	-10.9962
táveis	-10.9967
▁considerar	-10.9969
▁concedido	-10.9972
▁cantou	-10.9975
▁eric	-10.9976
▁moreira	-10.9981
▁circun	-10.9983
guar	-10.9983
▁resolve	-10.9984
▁identificar	-10.9986
▁espanhóis	-10.9986
▁causas	-10.9987
util	-10.9987
▁jura	-10.9989
quant	-10.999
▁suspeita	-10.9994
▁criatura	-10.9997
icidade	-10.9999
▁pesa	-11
fluente	-11.0005
pê	-11.0006
▁hábito	-11.0007
vere	-11.0008
▁presidencial	-11.001
▁cavalos	-11.0014
▁pobres	-11.0016
▁desaparece	-11.0016
▁certas	-11.0017
tinho	-11.0018
▁profissão	-11.0018
▁envolvidos	-11.0025
▁causado	-11.0026
ich	-11.0027
▁nobres	-11.0028
▁bispos	-11.0031
▁salário	-11.0031
▁experimental	-11.0033
jan	-11.0033
rik	-11.0034
▁prato	-11.0035
rinho	-11.0037
cb	-11.0038
▁fabricação	-11.0044
gradu	-11.0044
▁símbolos	-11.0045
lisboa	-11.0046
▁modifica	-11.0048
▁decisões	-11.005
feld	-11.0051
▁aventuras	-11.0052
▁recepção	-11.0054
▁dizia	-11.0055
óxido	-11.0057
▁andrew	-11.0059
bd	-11.0063
conce	-11.0063
tã	-11.0065
▁mostram	-11.0066
▁surgimento	-11.0066
▁johann	-11.0067
mili	-11.0069
▁1984,	-11.0069
▁causando	-11.0073
▁dream	-11.0074
▁revolucionário	-11.0078
▁publicidade	-11.0079
wy	-11.0083
▁saque	-11.0084
cina	-11.0086
▁felipe	-11.0087
▁comida	-11.0088
▁educado	-11.0093
▁referida	-11.0096
mail	-11.0096
-16	-11.0098
▁mandou	-11.0099
▁ligações	-11.01
▁emprestado	-11.0101
▁pesada	-11.0101
view	-11.0105
▁esfera	-11.0105
▁estilos	-11.0108
▁graça	-11.0109
▁entraram	-11.0111
▁jurídico	-11.0111
▁superliga	-11.0114
▁perante	-11.0115
▁rara	-11.0116
▁aceitar	-11.0116
educa	-11.0122
▁representou	-11.0123
▁aviação	-11.0126
▁nocaute	-11.0127
▁basicamente	-11.0128
▁fronteiras	-11.0128
hoje	-11.013
-4	-11.013
▁marie	-11.0132
▁harry	-11.0132
cana	-11.0132
▁day	-11.0133
▁arras	-11.0134
▁turístico	-11.0136
geni	-11.0136
▁cujas	-11.0141
▁teorias	-11.0142
▁relatos	-11.0143
▁flora	-11.0143
▁sábado	-11.0143
▁célebre	-11.0147
▁eficiente	-11.0147
▁associa	-11.0147
(...)	-11.0151
chin	-11.0152
▁cresce	-11.0153
▁grêmio	-11.0159
▁ouvido	-11.0166
▁legislação	-11.0167
▁comentários	-11.0167
▁resgata	-11.0176
▁veneza	-11.0176
iner	-11.0176
▁transmitida	-11.018
▁armada	-11.0181
▁casada	-11.0181
▁califa	-11.0183
▁ocidente	-11.0184
pm	-11.0184
▁cooperação	-11.019
▁destruído	-11.0193
▁estradas	-11.0194
capita	-11.0194
▁periódico	-11.0196
▁enviada	-11.0199
▁cérebro	-11.02
▁primário	-11.02
▁glória	-11.0204
▁exemplares	-11.0204
▁monteiro	-11.0206
▁japoneses	-11.0208
▁lutas	-11.021
▁alcance	-11.0214
▁autora	-11.0215
trop	-11.0216
▁botafogo	-11.0216
▁mexicano	-11.0216
laranja	-11.0216
▁1976,	-11.0217
▁ross	-11.0221
▁concluído	-11.0222
▁adotou	-11.0223
bulo	-11.0224
▁supostamente	-11.0224
▁probabilidade	-11.0224
▁proto	-11.0228
duto	-11.0229
almirante	-11.0233
music	-11.0236
▁permanecendo	-11.0239
▁1983,	-11.0239
▁correia	-11.024
cele	-11.0242
́	-11.0245
▁gay	-11.0245
lismo	-11.0246
trip	-11.0246
▁adapta	-11.0248
nen	-11.025
▁ivan	-11.0252
▁jon	-11.0256
maz	-11.0256
▁fabrica	-11.0256
mag	-11.0256
nti	-11.0257
fli	-11.0259
▁1890	-11.0261
enne	-11.0261
▁permanecer	-11.0262
pc	-11.0263
iense	-11.0266
▁decidiram	-11.0266
ães	-11.0267
▁evidências	-11.0268
▁fechada	-11.0269
▁ingleses	-11.027
▁teorema	-11.027
▁fibra	-11.027
▁promete	-11.0271
▁radical	-11.0274
▁comuna	-11.0281
▁peri	-11.0281
protagoniza	-11.0282
▁cavaleiros	-11.0282
dh	-11.0284
reci	-11.0285
▁rtp	-11.029
▁esquerdo	-11.029
▁inteiramente	-11.0292
▁término	-11.0294
▁latitude	-11.0298
▁association	-11.0299
▁universidades	-11.03
▁essencialmente	-11.03
reto	-11.0301
▁google	-11.0302
▁dezenas	-11.0303
▁extrema	-11.0303
▁executada	-11.0305
anta	-11.0306
▁eleitores	-11.0307
unidade	-11.031
▁dizem	-11.0311
vê	-11.0312
▁1973,	-11.0313
▁tecnologias	-11.0313
▁contribuição	-11.0318
cord	-11.0319
▁imagina	-11.0322
▁causada	-11.0322
tual	-11.0327
▁120	-11.0328
silv	-11.0334
▁bandeirantes	-11.0339
issa	-11.0339
▁abandonado	-11.0339
urgi	-11.034
▁complexa	-11.0344
▁1978,	-11.0344
▁pares	-11.0346
▁declarado	-11.0348
▁2001.	-11.0351
▁marcel	-11.0353
vig	-11.0355
wall	-11.0357
▁nunes	-11.0357
▁sony	-11.0362
ulação	-11.0368
▁cortes	-11.0369
▁manipula	-11.0369
▁normas	-11.0371
count	-11.0381
▁infraestrutura	-11.0381
▁transformado	-11.0381
phi	-11.0382
▁indústrias	-11.0384
▁plena	-11.0385
▁companheiros	-11.0386
junto	-11.0386
▁mesquita	-11.0389
▁propostas	-11.0391
zzi	-11.0397
▁perfil	-11.0401
▁similares	-11.0401
▁diagnóstico	-11.0404
.<	-11.0405
▁steven	-11.0407
▁conseguindo	-11.041
р	-11.0414
sexuais	-11.0415
▁monstro	-11.0418
▁inédita	-11.0418
▁paranaense	-11.0419
ômica	-11.042
premi	-11.0421
▁adequada	-11.0423
▁completou	-11.0423
▁cantando	-11.0424
nin	-11.0427
▁investimentos	-11.0428
bei	-11.0428
▁participando	-11.0429
pino	-11.0433
▁editado	-11.0433
▁boston	-11.0436
arch	-11.0438
andro	-11.0438
▁mariana	-11.0443
▁god	-11.0447
▁quilómetros	-11.0448
▁extensa	-11.0448
▁servindo	-11.045
▁tocando	-11.045
▁retirou	-11.0454
lega	-11.0456
▁continuaram	-11.0457
▁roman	-11.046
▁dependência	-11.0469
▁exercer	-11.047
▁180	-11.0471
franc	-11.0472
▁1940,	-11.0473
▁continuidade	-11.0473
▁observado	-11.0473
▁gregos	-11.0473
▁eletrônico	-11.0477
idi	-11.048
santa	-11.0482
▁state	-11.0482
▁giovanni	-11.0485
▁etapas	-11.049
▁north	-11.0491
ks	-11.0493
▁wwe	-11.0495
▁bancos	-11.0496
▁quarenta	-11.0498
▁brad	-11.0501
▁acabaram	-11.0506
nner	-11.0506
▁adicionais	-11.051
ardo	-11.0513
▁construídos	-11.0515
lança	-11.0517
š	-11.0519
eau	-11.0522
▁comenta	-11.0523
▁populacional	-11.0523
pula	-11.0525
▁nobreza	-11.0527
▁profundo	-11.0528
▁placas	-11.0531
▁utilizam	-11.0531
tuba	-11.0532
▁bons	-11.0535
▁militante	-11.0536
▁adquirir	-11.0536
xy	-11.0537
visor	-11.0537
raw	-11.054
▁episcopal	-11.054
colon	-11.0543
monte	-11.0545
▁delegado	-11.0549
▁identifica	-11.055
▁bases	-11.0557
▁intensidade	-11.0557
▁coberto	-11.0558
▁rebeldes	-11.0559
▁interessa	-11.056
▁games	-11.0561
xu	-11.0562
secret	-11.0564
▁reformas	-11.0567
▁observação	-11.0572
▁tornado	-11.0573
▁considerável	-11.0574
▁tesouro	-11.0574
▁faziam	-11.0579
▁atenas	-11.058
▁muçulmanos	-11.0582
▁tortura	-11.0583
700	-11.0584
▁brasão	-11.0586
▁wrestling	-11.0586
▁sono	-11.0587
▁ultra	-11.0589
▁fiscal	-11.059
▁talentos	-11.059
▁foz	-11.0591
bati	-11.0593
▁raro	-11.0594
3%	-11.0595
▁compromisso	-11.0595
osos	-11.0595
▁fracasso	-11.0596
prop	-11.0596
▁imperatriz	-11.0599
▁atendimento	-11.0603
▁expectativa	-11.0603
▁desporto	-11.0605
▁incentiva	-11.0608
▁rugby	-11.0608
▁shopping	-11.0608
1%	-11.0609
▁secreto	-11.0615
▁paciente	-11.0615
▁napoleão	-11.0616
▁espectro	-11.0616
▁avalia	-11.0617
nig	-11.0618
ive	-11.0619
▁florestas	-11.062
▁masculina	-11.062
stone	-11.0621
▁particulares	-11.0623
▁protocolo	-11.0625
▁envolveu	-11.0627
lítico	-11.0629
▁arqueológico	-11.0629
▁confiança	-11.063
vina	-11.063
▁filmado	-11.0631
▁consagra	-11.0631
mona	-11.0637
▁remix	-11.0639
▁corta	-11.064
▁estrangeiro	-11.0645
▁coletiva	-11.0647
▁sucede	-11.065
▁registo	-11.0651
▁1945,	-11.0652
dela	-11.0654
título	-11.0654
▁ryan	-11.0654
▁sentença	-11.0655
ander	-11.0656
▁revisão	-11.0659
lhi	-11.066
▁crédito	-11.0663
▁traduzido	-11.0666
cioso	-11.0667
▁variável	-11.0672
▁irre	-11.0672
▁reduzido	-11.068
jornal	-11.0682
▁cinza	-11.0683
▁nicho	-11.0684
▁acre	-11.0685
▁preservação	-11.0685
hm	-11.069
▁inspirada	-11.0691
▁monarquia	-11.0693
ij	-11.0694
▁1968,	-11.0695
▁sueco	-11.0698
dinho	-11.0702
comput	-11.0703
2%	-11.0705
▁samuel	-11.0706
rú	-11.0708
▁quadri	-11.0711
▁platina	-11.0713
▁raramente	-11.0714
spera	-11.0714
vali	-11.0718
roso	-11.0721
ônimo	-11.0723
▁uefa	-11.0724
▁doméstico	-11.0727
▁lewis	-11.0728
▁raiz	-11.0729
wie	-11.0729
▁descrever	-11.073
▁blocos	-11.0731
▁ocidentais	-11.0732
▁infante	-11.0732
▁dirigente	-11.0734
▁federais	-11.074
▁inclina	-11.0742
▁especialistas	-11.0746
▁célula	-11.0746
▁estúdios	-11.0747
fri	-11.0747
▁chuva	-11.075
_4	-11.075
nnie	-11.0751
▁atira	-11.0752
▁lhes	-11.0752
▁voluntário	-11.0753
porto	-11.0757
▁diálogo	-11.0757
▁antecessor	-11.0757
▁plástico	-11.0757
▁1969,	-11.0758
ness	-11.0767
zzo	-11.0768
▁news	-11.0773
pilot	-11.0774
▁expresso	-11.0775
métrico	-11.0775
▁pátio	-11.0775
▁executar	-11.0777
▁judaica	-11.0779
▁herança	-11.0779
▁numerosos	-11.0779
▁entender	-11.0783
ídeos	-11.0784
▁distintas	-11.0786
ignora	-11.0787
caba	-11.0791
▁abu	-11.0791
yoshi	-11.08
▁society	-11.0801
pei	-11.0802
▁reduzida	-11.0804
hid	-11.0809
mani	-11.0819
▁antiguidade	-11.0822
▁controvérsia	-11.0822
▁atingido	-11.0822
▁podiam	-11.0823
▁compositores	-11.0823
mun	-11.0824
▁adotado	-11.083
▁organismo	-11.0831
▁aparente	-11.0833
▁concessão	-11.0835
▁rapaz	-11.0837
▁jardins	-11.0837
▁democrata	-11.0838
vão	-11.0839
▁conexão	-11.084
▁tecido	-11.084
ware	-11.0841
quist	-11.0846
▁azevedo	-11.0848
▁prega	-11.0849
▁(;	-11.085
▁moedas	-11.0851
▁1909	-11.0852
▁divulgado	-11.0854
▁moura	-11.0855
▁anel	-11.0859
cci	-11.086
▁indiana	-11.0861
▁cumprir	-11.0861
drive	-11.0862
▁sementes	-11.0865
▁procurador	-11.0871
▁critérios	-11.0876
▁cordas	-11.0877
gueiro	-11.0878
▁parecia	-11.0879
phy	-11.088
▁beneficia	-11.0892
quim	-11.0893
▁blues	-11.0896
▁lagos	-11.0896
ello	-11.0896
▁emprega	-11.0896
▁mangá	-11.0898
div	-11.0899
▁repertório	-11.0901
▁reitor	-11.0903
▁negativo	-11.0907
trin	-11.0908
▁transportes	-11.0908
▁escrevendo	-11.0909
▁1964,	-11.091
▁minissérie	-11.0914
▁indígena	-11.0916
▁configuração	-11.0917
▁(4	-11.0917
▁seco	-11.0918
▁bragança	-11.0919
▁sediada	-11.092
▁intuito	-11.0922
▁lutador	-11.0923
▁milão	-11.0926
▁consecutiva	-11.0927
▁warner	-11.0929
▁inteligente	-11.0931
▁foguete	-11.0931
wick	-11.0934
▁aprender	-11.0935
▁marechal	-11.0936
▁paisagem	-11.0936
▁confia	-11.0939
▁stephen	-11.094
▁ofício	-11.0942
▁bart	-11.0944
▁contínua	-11.0944
tori	-11.0947
ddy	-11.0948
▁sofia	-11.0948
▁acampamento	-11.0949
hua	-11.095
▁assento	-11.0954
▁escolheu	-11.0954
curi	-11.0955
▁estivesse	-11.0958
▁transformada	-11.0958
▁ovos	-11.0965
▁baseados	-11.0965
gate	-11.0965
▁cães	-11.0966
▁integrada	-11.0967
ción	-11.0968
▁tubo	-11.0968
tig	-11.0969
▁pretendia	-11.0971
▁responde	-11.0974
▁libertadores	-11.0976
pedi	-11.0981
químico	-11.0983
▁columbia	-11.0985
mero	-11.0987
ástica	-11.0989
▁decorrer	-11.099
▁escritas	-11.0993
▁deveriam	-11.0995
▁centra	-11.0996
▁radiação	-11.0998
▁culturas	-11.1003
▁iluminação	-11.1004
▁1981,	-11.1006
▁correta	-11.1006
▁freitas	-11.1007
▁vasta	-11.1009
▁relaciona	-11.101
▁vital	-11.1012
gênio	-11.1015
▁transferida	-11.1016
—	-11.1018
mig	-11.1018
▁rochas	-11.1019
game	-11.102
▁costas	-11.1021
pode	-11.1022
▁1905	-11.1028
▁especialista	-11.1029
▁acontecer	-11.103
▁1906	-11.1032
▁teatral	-11.1033
alta	-11.1034
▁outono	-11.1034
▁mexicana	-11.1037
▁parentes	-11.104
▁julian	-11.1041
▁cláudio	-11.1041
ódio	-11.1051
▁interpretando	-11.1053
▁deixaram	-11.1054
last	-11.1056
enses	-11.1059
august	-11.1061
▁cozinha	-11.1062
▁ibne	-11.1063
hawk	-11.1064
▁implant	-11.1066
▁vagas	-11.1069
▁graves	-11.1071
▁tecidos	-11.1073
▁obtida	-11.1073
ciência	-11.1083
▁oportunidades	-11.1083
▁aumentou	-11.1083
chan	-11.1085
▁oferecido	-11.1086
▁sérvia	-11.1086
▁considerou	-11.109
som	-11.1091
▁memorial	-11.1093
culares	-11.1094
▁contraste	-11.1097
▁adição	-11.1099
▁margarida	-11.1099
▁alcançando	-11.1105
▁emissoras	-11.1106
▁noiva	-11.1108
▁out	-11.1108
▁escritora	-11.1109
▁referente	-11.111
▁cantores	-11.111
dragon	-11.1119
▁polar	-11.1121
▁andrea	-11.1123
▁marcante	-11.1123
▁reprodução	-11.1127
▁impressão	-11.1131
▁mancha	-11.1133
▁roteirista	-11.1135
lian	-11.1136
lheiro	-11.1139
▁regressou	-11.1139
▁cineasta	-11.1144
▁distinção	-11.1144
beau	-11.1151
▁barro	-11.116
▁coloração	-11.1163
▁vencedores	-11.1165
▁suicídio	-11.1166
▁respectivo	-11.1166
▁abandona	-11.1169
bc	-11.1169
éis	-11.1173
▁salvo	-11.1177
▁observar	-11.1179
▁emergência	-11.118
manuel	-11.1184
▁polêmica	-11.1184
▁promessa	-11.1184
duque	-11.1184
▁legislativo	-11.1189
▁pirata	-11.1189
hai	-11.1191
▁prisioneiros	-11.1192
▁arquidiocese	-11.1193
▁intérprete	-11.1193
▁ortodoxa	-11.1193
▁artilheiro	-11.1198
▁propôs	-11.1198
▁gasto	-11.1199
ño	-11.1201
morfo	-11.1201
▁grammy	-11.1202
▁chamava	-11.1207
▁hong	-11.121
▁corrupção	-11.1211
cht	-11.1212
▁fatos	-11.1213
▁decoração	-11.1213
▁substituiu	-11.1213
hur	-11.1213
▁reproduz	-11.1215
▁from	-11.1215
▁1999.	-11.1216
ping	-11.1219
▁asas	-11.1222
▁aprovada	-11.1222
▁património	-11.1225
▁estrelou	-11.1225
▁segundos	-11.1226
▁fro	-11.1228
▁turma	-11.1229
▁continha	-11.1238
▁eficaz	-11.1239
▁sentir	-11.124
▁coordena	-11.1241
â	-11.1242
▁surpresa	-11.1243
▁elegeu	-11.1244
▁formaram	-11.1244
▁tornaria	-11.1247
▁adolf	-11.1247
▁extremidade	-11.1248
blanc	-11.1249
▁renato	-11.1251
-10	-11.1253
encia	-11.1259
▁exporta	-11.126
ónico	-11.1262
▁marinho	-11.1271
numera	-11.1272
▁quartas	-11.1273
▁1972,	-11.1273
mura	-11.1274
▁sombra	-11.1275
▁soul	-11.1277
▁manifestações	-11.1282
▁acadêmica	-11.1284
▁ensaios	-11.1284
hara	-11.1286
▁caio	-11.1291
▁associações	-11.1295
▁mensagens	-11.1297
▁sound	-11.13
▁cientista	-11.13
▁marcar	-11.1302
▁vaticano	-11.1302
▁ventos	-11.1303
▁harris	-11.1305
▁diversidade	-11.1307
luci	-11.1308
▁tipicamente	-11.1311
mentais	-11.1312
▁channel	-11.1312
bec	-11.1316
▁pôde	-11.1318
persona	-11.1319
▁fantasma	-11.132
▁interação	-11.133
▁munique	-11.1331
▁caro	-11.1331
▁morais	-11.1332
campo	-11.1332
mour	-11.1333
▁cachoeira	-11.1334
▁constantemente	-11.1334
▁gerou	-11.1334
▁neves	-11.134
sub	-11.1343
▁voltada	-11.1343
▁visitou	-11.1343
▁abrigo	-11.1346
xia	-11.1348
▁barreira	-11.1348
▁proteínas	-11.1353
▁sino	-11.1356
▁melodia	-11.136
▁auxílio	-11.1361
ffa	-11.1363
▁haja	-11.1365
▁nativa	-11.1367
▁cava	-11.1369
▁áudio	-11.137
had	-11.1375
▁hitler	-11.1377
▁raios	-11.1377
▁sindicato	-11.138
▁tóquio	-11.138
▁ofereceu	-11.1383
villa	-11.1385
▁jaime	-11.1389
tech	-11.139
ísta	-11.1393
▁1907	-11.1393
▁ascende	-11.1394
▁campus	-11.1396
▁batalhão	-11.1398
▁asiático	-11.1403
▁camadas	-11.1403
▁operário	-11.1405
▁coordenador	-11.1406
▁colonização	-11.1407
▁buraco	-11.1408
▁navegação	-11.141
▁mantida	-11.1411
▁relacionada	-11.1416
▁alternativo	-11.1418
▁voltado	-11.1421
▁fiel	-11.1421
tinga	-11.1423
prima	-11.1424
▁adquirida	-11.1426
▁destacando	-11.1426
main	-11.1428
▁heróis	-11.1431
▁móveis	-11.1435
▁reputação	-11.1435
▁vereadores	-11.1435
▁específica	-11.1436
▁instrução	-11.1437
▁positivas	-11.1438
lb	-11.1438
lítica	-11.1439
▁auxilia	-11.144
zza	-11.144
▁seguidores	-11.1441
▁tráfego	-11.1449
▁expo	-11.1451
▁rurais	-11.1452
▁cheia	-11.1453
▁vetor	-11.1453
▁prevista	-11.1458
▁liceu	-11.1458
nciou	-11.1459
▁específicos	-11.1464
▁baseia	-11.1465
▁aparições	-11.1467
ore	-11.1472
▁procede	-11.1474
▁nativos	-11.1474
cole	-11.1476
▁morar	-11.1477
▁seguiram	-11.148
▁janela	-11.1482
▁classificados	-11.1484
ū	-11.1486
▁xavier	-11.1486
▁acerca	-11.1486
▁sobreviventes	-11.1489
▁evangelho	-11.149
▁mínima	-11.149
▁planície	-11.1495
▁planalto	-11.1495
ize	-11.1496
▁belga	-11.1496
cionada	-11.1497
▁proximidades	-11.15
▁adota	-11.1501
▁ambientes	-11.1501
▁chegam	-11.1503
▁pensar	-11.1503
▁coletânea	-11.1504
verde	-11.1504
▁curtas	-11.1505
▁joan	-11.1511
▁mali	-11.1512
▁cidadão	-11.1512
qa	-11.1513
▁1903	-11.1513
lab	-11.1513
▁fonseca	-11.1514
arma	-11.1517
▁complementar	-11.1518
pronuncia	-11.1518
▁designada	-11.1523
▁trânsito	-11.1523
germânico	-11.1523
▁2019.	-11.1526
▁coletivo	-11.1527
▁semifinais	-11.1527
▁1980.	-11.1532
beck	-11.1532
▁pouso	-11.1532
proclama	-11.1534
pod	-11.1535
▁direciona	-11.154
ł	-11.1541
▁legislatura	-11.1541
▁250	-11.1544
▁teto	-11.1545
moni	-11.155
▁ronald	-11.1551
tento	-11.1551
duz	-11.1552
estado	-11.1552
▁castel	-11.1554
▁derivada	-11.1558
articula	-11.1559
▁basquete	-11.156
▁distribuída	-11.156
▁defensor	-11.156
▁reclama	-11.1561
▁indu	-11.1565
▁válidos	-11.1567
▁acelera	-11.1569
▁iraque	-11.1575
uba	-11.1576
▁(14	-11.1577
▁ribeirão	-11.1579
▁estranho	-11.1579
▁south	-11.1582
▁actua	-11.1585
▁abadia	-11.1585
▁envolvimento	-11.1588
▁soldado	-11.1589
▁alterado	-11.1595
▁justin	-11.1597
▁magia	-11.1598
cru	-11.1598
▁compôs	-11.1601
с	-11.1602
▁album	-11.1603
▁poço	-11.1604
▁comprova	-11.1605
wing	-11.1608
osamente	-11.1609
▁sonda	-11.1609
▁meninas	-11.1614
▁ernesto	-11.1615
▁temática	-11.162
▁longas	-11.1622
▁estreito	-11.1622
▁esqui	-11.1624
▁alfredo	-11.1625
▁tornam	-11.1626
até	-11.1626
dito	-11.1631
▁encontraram	-11.1633
▁formalmente	-11.1634
▁biografia	-11.1635
▁procurar	-11.1637
▁bilheteria	-11.1638
▁relógio	-11.164
▁soberano	-11.164
copia	-11.1641
▁lazer	-11.1641
▁angra	-11.1643
▁arquipélago	-11.1645
▁incapaz	-11.1645
▁longitude	-11.1645
▁sessões	-11.1645
▁comparado	-11.1646
▁carmo	-11.1648
▁consecutivo	-11.1654
▁evidente	-11.1655
▁regularmente	-11.1658
▁compete	-11.1658
▁reuniões	-11.1659
igua	-11.166
rinha	-11.1663
▁arroz	-11.1664
incluindo	-11.1672
▁adicionado	-11.1674
garra	-11.1677
▁desmembra	-11.1678
▁sétima	-11.1678
7%	-11.1681
▁impresso	-11.1682
▁comprado	-11.1685
▁moçambique	-11.1687
▁entrevistas	-11.1689
▁literal	-11.1689
▁apresentadora	-11.1691
▁judicial	-11.1692
▁corporation	-11.1692
▁necessários	-11.1692
▁difere	-11.1694
▁interessado	-11.1696
▁claramente	-11.1696
▁caxias	-11.1697
belo	-11.1697
teen	-11.1698
yl	-11.1699
▁assassina	-11.1699
say	-11.1699
▁financiamento	-11.1701
contra	-11.1701
▁encena	-11.1703
▁humanas	-11.1704
cti	-11.1705
▁nicolau	-11.1709
▁assistir	-11.171
nina	-11.1711
▁jamais	-11.1715
▁entretenimento	-11.1715
reality	-11.1719
four	-11.1721
pil	-11.1722
▁frutos	-11.1723
▁gustavo	-11.1724
▁mármore	-11.173
▁mede	-11.1732
wald	-11.1739
▁indicada	-11.1739
▁vinda	-11.174
put	-11.1742
ward	-11.1744
▁assumindo	-11.1744
▁olhar	-11.1745
▁subsequente	-11.1745
▁morreram	-11.1747
▁falecer	-11.1749
▁guiné	-11.175
▁rompe	-11.1753
pai	-11.1753
psdb	-11.1753
▁neve	-11.1755
▁enviar	-11.1757
▁trazendo	-11.1758
worth	-11.1759
▁lucro	-11.1765
▁acorda	-11.1768
cionário	-11.1772
▁setores	-11.1773
she	-11.1773
cân	-11.1776
▁indicações	-11.1777
▁anne	-11.1779
▁personalidades	-11.178
▁substância	-11.1782
▁reconstrução	-11.1787
▁sucedeu	-11.1788
jado	-11.1788
▁concepção	-11.1792
ett	-11.1792
escola	-11.1792
▁matou	-11.1794
▁reunir	-11.1797
▁dark	-11.1798
ece	-11.1799
▁1904	-11.1805
▁implementação	-11.1806
▁publicadas	-11.1806
▁preços	-11.1806
▁joana	-11.1806
mati	-11.1808
▁vendida	-11.1808
vy	-11.1813
▁cerâmica	-11.1815
df	-11.1817
ffe	-11.182
▁vestido	-11.1823
▁introduzida	-11.1823
led	-11.1824
▁mateus	-11.1826
▁eletrônicos	-11.183
▁alan	-11.1835
hiro	-11.1837
tang	-11.1838
▁avançado	-11.184
▁dispensa	-11.1843
enga	-11.1843
▁saga	-11.1843
▁1970.	-11.1844
▁arcos	-11.1848
pire	-11.1849
▁absoluta	-11.1851
▁seleções	-11.1855
▁boxe	-11.1857
▁sarah	-11.1857
▁adequado	-11.1859
▁industriais	-11.1861
firm	-11.1862
▁inovador	-11.1865
▁cruzado	-11.1868
▁duplas	-11.1871
▁triângulo	-11.1873
▁legado	-11.1874
bolo	-11.1878
▁crescer	-11.1879
brook	-11.1879
ith	-11.188
▁contribuições	-11.1881
prime	-11.1881
▁pires	-11.1884
▁sólido	-11.1886
▁discípulo	-11.1888
arra	-11.1889
quina	-11.1891
ônicos	-11.1892
this	-11.1892
▁preparado	-11.19
▁remanescente	-11.1902
▁engenho	-11.1907
▁oposto	-11.1909
▁acabar	-11.1909
▁perdida	-11.191
▁síndrome	-11.1912
▁hans	-11.1914
▁numerosas	-11.1917
▁cultivo	-11.1919
▁comporta	-11.192
▁java	-11.1922
▁lidar	-11.1928
▁posiciona	-11.193
▁imediato	-11.1931
▁assalto	-11.1932
▁almo	-11.1933
▁precisamente	-11.1935
▁unânime	-11.1941
▁gonçalo	-11.1941
▁precisão	-11.1941
cca	-11.1941
▁anderson	-11.1943
polis	-11.1943
▁diretora	-11.1943
ória	-11.195
mur	-11.1959
break	-11.1959
▁servidor	-11.1959
▁atletismo	-11.196
▁alegando	-11.1961
▁nossos	-11.1965
▁económica	-11.1965
▁mello	-11.1967
▁xxi	-11.1973
uso	-11.1976
▁competência	-11.198
zel	-11.1981
fur	-11.1986
▁hamilton	-11.1989
▁impostos	-11.199
8%	-11.1991
▁genética	-11.1995
▁aliado	-11.2003
▁ribeira	-11.2005
▁milho	-11.2007
▁caverna	-11.2009
▁brigada	-11.201
▁sabor	-11.2011
▁enrique	-11.2016
fall	-11.2017
▁gráficos	-11.2018
▁orientais	-11.2018
▁fome	-11.2019
▁acertou	-11.2029
fc	-11.203
▁reduz	-11.203
▁gesto	-11.2031
▁múltipla	-11.2033
vier	-11.2035
▁proposto	-11.2035
▁flórida	-11.2038
▁ergue	-11.2039
▁semestre	-11.2039
▁vozes	-11.2043
clam	-11.2044
▁pesquisador	-11.2046
▁atingindo	-11.2048
▁jay	-11.205
▁cesar	-11.2054
▁constantes	-11.2056
▁comboio	-11.2059
▁wolf	-11.206
▁kevin	-11.2061
▁voltando	-11.2068
▁localidades	-11.2069
▁impossível	-11.2073
▁kelly	-11.2074
▁bruce	-11.2076
▁declínio	-11.2083
▁centrais	-11.2086
▁olímpica	-11.2087
▁falsa	-11.209
jen	-11.2091
grim	-11.2092
▁artificial	-11.2092
▁glic	-11.2095
▁elaboração	-11.2097
▁capitania	-11.2097
▁dispõe	-11.21
▁tarefas	-11.2101
▁endereço	-11.2102
▁praga	-11.2107
▁austríaco	-11.2107
rid	-11.2108
▁homônimo	-11.2112
▁ministra	-11.2114
▁hectares	-11.2117
▁alteração	-11.212
▁versos	-11.212
▁bai	-11.212
determin	-11.2121
gt	-11.2123
▁encerramento	-11.2131
▁prefere	-11.2132
▁adolescentes	-11.2133
▁autorização	-11.2135
▁visível	-11.2137
▁construídas	-11.2138
▁vencido	-11.2138
▁estatal	-11.214
▁cópia	-11.2144
▁divididos	-11.2146
▁davis	-11.2149
maior	-11.2152
▁moça	-11.2153
class	-11.2155
▁vertical	-11.2162
▁artur	-11.217
▁desperta	-11.217
▁conjunta	-11.2171
▁silveira	-11.2172
▁merc	-11.2174
fé	-11.2174
▁apoiou	-11.2176
▁duma	-11.2178
valente	-11.2181
list	-11.2181
▁transmitir	-11.2182
▁kir	-11.2183
ñ	-11.2188
▁favorito	-11.2189
cabeça	-11.22
▁vendidas	-11.22
▁relativo	-11.2201
▁acreditam	-11.2202
abilidade	-11.2203
▁substâncias	-11.2206
mori	-11.2206
▁ferramenta	-11.2207
▁perseguição	-11.2209
zin	-11.221
▁créditos	-11.2211
▁protótipo	-11.2211
▁gerações	-11.2213
▁diogo	-11.2215
▁ocasionalmente	-11.2216
▁concedida	-11.2216
:00	-11.2217
▁componente	-11.2217
▁vizinho	-11.2218
▁gerente	-11.2218
▁baile	-11.222
bian	-11.2221
▁nascente	-11.2221
6%	-11.2226
▁inclusão	-11.2226
▁apple	-11.223
▁robô	-11.2233
ensis	-11.2233
▁1000	-11.2235
▁pertencentes	-11.2239
ún	-11.224
chel	-11.224
▁bran	-11.2241
▁prende	-11.2242
▁regulares	-11.2251
▁júri	-11.2252
▁geórgia	-11.2256
▁mágico	-11.2256
▁pedaço	-11.2261
▁dum	-11.2263
oides	-11.2263
▁financeiros	-11.2267
▁aceito	-11.2271
▁dna	-11.2271
▁russos	-11.2274
▁proprietários	-11.2275
▁propaga	-11.2276
▁explosão	-11.2277
▁provincial	-11.2283
5.000	-11.2283
▁primitiva	-11.2285
▁sagrada	-11.2286
cept	-11.2289
▁executa	-11.2291
▁maurício	-11.2291
▁piauí	-11.2291
andre	-11.2294
lito	-11.2294
▁compor	-11.2294
▁processa	-11.2296
▁álvaro	-11.2296
lier	-11.23
▁publicar	-11.2301
▁triste	-11.2301
▁exclusivo	-11.2301
▁manga	-11.2303
▁legenda	-11.2309
▁ucrânia	-11.2311
hem	-11.2312
▁cristina	-11.2313
▁acusações	-11.2319
▁colomb	-11.232
passa	-11.2321
▁trabalhista	-11.2321
▁roupa	-11.2325
lena	-11.2326
▁alimento	-11.2328
▁viana	-11.2328
▁aproximação	-11.2328
mestre	-11.2329
▁1902	-11.2331
▁organismos	-11.2332
born	-11.2332
▁álcool	-11.2337
élia	-11.2337
▁ginásio	-11.2347
▁escuro	-11.235
▁rivalidade	-11.2352
ômetro	-11.2353
night	-11.2355
▁erros	-11.2356
▁that	-11.2359
▁trave	-11.236
▁ensaio	-11.2362
▁pênalti	-11.2362
▁pobre	-11.2365
▁turistas	-11.237
▁consideram	-11.2373
▁destina	-11.2376
▁miller	-11.2376
▁encarregado	-11.2377
▁intel	-11.2377
-12	-11.2378
▁catálogo	-11.2387
▁mudaram	-11.2389
▁processamento	-11.239
▁abertos	-11.2393
ponto	-11.2394
▁opções	-11.2395
nutri	-11.2396
▁constituem	-11.2397
▁fórum	-11.2397
▁mistério	-11.2402
▁braços	-11.2405
court	-11.2405
▁dourado	-11.2408
▁atuava	-11.2408
intro	-11.2409
aldo	-11.2409
▁charlie	-11.241
▁filiado	-11.241
what	-11.2411
ologista	-11.2412
▁gratuita	-11.2413
▁continuação	-11.2413
bata	-11.2416
rida	-11.2419
▁caracterizado	-11.2423
▁1870	-11.2424
▁1880	-11.2424
tâ	-11.2425
quê	-11.2428
▁bull	-11.2429
▁borges	-11.2431
▁fabri	-11.2432
angel	-11.2432
▁recompensa	-11.2433
▁desempenhou	-11.2436
▁efetiva	-11.2436
▁pronto	-11.2437
bina	-11.244
▁allen	-11.2441
tle	-11.2444
force	-11.2444
▁congo	-11.2445
▁libertado	-11.2447
hier	-11.2449
▁retornando	-11.2451
▁visitar	-11.2452
▁baiano	-11.2453
▁1891	-11.2453
▁veterano	-11.2453
▁editorial	-11.2454
▁preocupação	-11.2457
▁francis	-11.2458
▁adolescência	-11.2458
▁agrícolas	-11.2458
▁auge	-11.246
late	-11.2461
▁operar	-11.2461
▁aragão	-11.2464
dice	-11.2467
gross	-11.2473
ptico	-11.2475
▁evidência	-11.2476
kor	-11.2478
▁douglas	-11.2479
▁parâmetro	-11.2479
thu	-11.2481
turn	-11.2482
continu	-11.2484
▁leonardo	-11.2489
▁mr	-11.2492
▁fundamentais	-11.2493
▁montado	-11.2494
pressões	-11.2495
▁carneiro	-11.2495
▁nacionalista	-11.2496
▁johnny	-11.2497
▁econômicas	-11.2498
novo	-11.2498
▁passagens	-11.2498
campa	-11.2502
▁luísa	-11.2504
▁hum	-11.2504
▁catarinense	-11.2505
▁finanças	-11.2505
rolling	-11.2505
plat	-11.2507
▁sentimentos	-11.2509
▁gerado	-11.2509
cosmo	-11.2509
▁1889	-11.2516
▁renovação	-11.252
▁prior	-11.2521
▁estou	-11.2523
▁pesado	-11.2524
_5	-11.2524
▁estiveram	-11.2525
▁havendo	-11.2525
▁concreto	-11.253
▁essencial	-11.2537
▁pleno	-11.2538
▁tende	-11.2541
landes	-11.2542
▁caminha	-11.2542
▁reed	-11.2545
▁destacar	-11.2547
▁mitologia	-11.2554
here	-11.2556
▁inteira	-11.2559
▁treinar	-11.2561
çou	-11.2561
▁ilegal	-11.2561
corpo	-11.2562
▁carol	-11.2562
taba	-11.2564
▁equipado	-11.2564
▁vôlei	-11.2566
▁perturba	-11.2566
▁confusão	-11.2572
▁respectiva	-11.2574
▁conduz	-11.2579
yang	-11.258
mart	-11.2581
▁ibérica	-11.2582
▁rendimento	-11.2582
leta	-11.2583
▁retira	-11.2586
▁sicília	-11.2587
▁(2011)	-11.2587
▁vivendo	-11.2587
▁costumes	-11.2589
▁explicar	-11.2593
cilia	-11.2593
▁distribuído	-11.2598
▁circula	-11.2598
uff	-11.2599
quino	-11.2602
▁gian	-11.2603
▁semanal	-11.2604
▁concedeu	-11.2604
▁fluido	-11.2608
▁parecem	-11.2611
▁gregório	-11.2613
lização	-11.2617
▁rebelião	-11.2618
▁deficiência	-11.2618
▁molecular	-11.2619
▁trens	-11.2622
lago	-11.2625
▁caval	-11.2629
▁abuso	-11.263
▁confirmada	-11.2631
▁terrenos	-11.2632
▁teclado	-11.2634
▁tomado	-11.2635
▁ocorrida	-11.2636
▁agrupa	-11.2637
▁designar	-11.2639
▁bebê	-11.2639
vert	-11.2641
▁aumentando	-11.2642
▁incentivo	-11.2644
▁distintos	-11.2645
tun	-11.2647
▁marx	-11.2648
▁sério	-11.2649
pendi	-11.2652
▁oitavo	-11.2655
▁alexandria	-11.2656
▁adulto	-11.2664
▁imita	-11.2668
mand	-11.2669
▁consistia	-11.267
▁teor	-11.2673
▁buscar	-11.2673
oxida	-11.2674
▁pontua	-11.2674
nf	-11.2674
▁escura	-11.2675
ş	-11.2675
▁triunfo	-11.2675
▁tomando	-11.2682
▁funcionar	-11.2683
lux	-11.2686
inga	-11.2689
▁válida	-11.2691
▁estimativa	-11.2691
liz	-11.2696
erson	-11.2697
▁cerveja	-11.2697
▁disposição	-11.2699
▁variam	-11.2702
▁vilão	-11.2709
▁aut	-11.271
▁comercializa	-11.2712
▁compilação	-11.2712
▁viajar	-11.2717
ø	-11.2717
▁1901	-11.2718
ólico	-11.2721
arro	-11.2721
▁getúlio	-11.2722
quinho	-11.2726
▁separados	-11.2731
▁nervo	-11.2731
▁aprendeu	-11.2731
faust	-11.2733
▁premiação	-11.2739
▁operador	-11.2751
▁marítima	-11.2754
▁chá	-11.2754
▁jason	-11.2754
▁respondeu	-11.2754
▁milhas	-11.2755
▁assinar	-11.2756
glu	-11.2756
▁costuma	-11.2757
▁maxim	-11.2758
▁saí	-11.2758
▁divina	-11.2764
▁trabalhado	-11.2769
hun	-11.2771
▁considerava	-11.2775
▁intenso	-11.2777
▁manual	-11.2777
▁garantia	-11.278
▁oponente	-11.2781
▁avançou	-11.2783
▁decidir	-11.2783
neur	-11.2786
▁peito	-11.2786
foi	-11.2787
▁emigra	-11.2787
▁blu	-11.2789
▁convida	-11.2789
▁egípcio	-11.2791
▁membrana	-11.2791
▁sobrenome	-11.2792
▁gradualmente	-11.2796
▁resgate	-11.2797
▁iniciando	-11.2798
▁proximidade	-11.2801
itz	-11.2804
▁indicam	-11.2807
▁raul	-11.2808
▁utilizou	-11.2812
▁bebe	-11.2812
▁franca	-11.2814
▁fraco	-11.2815
▁partilha	-11.2815
▁quaisquer	-11.2818
▁estética	-11.2818
▁howard	-11.2819
corrente	-11.282
▁montagem	-11.2823
▁brun	-11.2823
▁facilidade	-11.2823
▁censura	-11.2823
▁seguem	-11.2825
▁viviam	-11.2827
▁promotor	-11.2827
▁toronto	-11.2828
▁multiplica	-11.2829
▁específicas	-11.2832
▁regulamenta	-11.2833
▁sentimento	-11.2835
kill	-11.2835
▁conseguido	-11.284
▁irão	-11.2842
▁cab	-11.2845
▁permissão	-11.2845
▁assegura	-11.2846
▁investigações	-11.285
▁assentamento	-11.2851
▁lady	-11.2852
▁diamante	-11.2852
▁fêmeas	-11.2852
▁conversão	-11.2854
fly	-11.2856
saur	-11.2857
▁rodas	-11.2857
▁complexidade	-11.286
▁fugiu	-11.2862
cardi	-11.2863
▁amazônia	-11.2865
▁subir	-11.2867
▁tributo	-11.2869
▁substituto	-11.2871
▁iguais	-11.2872
▁classificar	-11.2872
▁introduziu	-11.2876
▁linux	-11.2876
biblio	-11.2876
▁funcionário	-11.2878
▁aposentadoria	-11.2884
▁arredores	-11.2885
▁violenta	-11.2886
в	-11.2886
▁ídolo	-11.2891
▁julga	-11.2896
▁protegida	-11.2897
húngaro	-11.2902
▁ganharam	-11.2905
▁estiver	-11.2905
▁pernas	-11.2907
▁fábio	-11.2908
litera	-11.2909
irmão	-11.2912
▁demitido	-11.2913
ichi	-11.2913
▁vestígios	-11.2913
▁alegria	-11.2919
▁pasta	-11.2923
gido	-11.2925
▁alcançado	-11.2928
▁jogado	-11.2928
▁paleo	-11.2929
▁florença	-11.2929
auto	-11.293
▁jato	-11.2931
▁torcedores	-11.2932
▁diária	-11.2936
▁precisam	-11.2939
ë	-11.294
▁amistoso	-11.294
▁combater	-11.294
▁console	-11.2941
ender	-11.2941
▁iniciaram	-11.2941
▁machos	-11.2941
valdo	-11.2942
▁jacques	-11.2945
-5	-11.2949
▁liberado	-11.295
▁baviera	-11.2951
▁kit	-11.2952
ior	-11.2954
▁figueiredo	-11.2956
▁compreensão	-11.2956
▁anjos	-11.2957
к	-11.2961
▁ferroviário	-11.2961
▁entende	-11.2963
vre	-11.2964
▁pianista	-11.2967
▁entrando	-11.297
▁facilita	-11.297
▁codifica	-11.2971
▁protetor	-11.2972
▁prússia	-11.2972
▁intelectuais	-11.2977
▁hospeda	-11.2978
▁laura	-11.2978
▁continuam	-11.298
▁acompanhada	-11.2982
▁rebaixado	-11.2983
▁singular	-11.2984
feriu	-11.2984
▁escal	-11.2985
▁irã	-11.2986
soft	-11.2987
▁pote	-11.2987
▁subiu	-11.2989
▁produzindo	-11.299
▁bizantina	-11.2994
▁comandou	-11.2995
mirim	-11.2997
▁mediterrâneo	-11.2999
boy	-11.3002
▁severa	-11.3003
▁manifesto	-11.3004
▁desportiva	-11.3004
▁conclui	-11.3006
▁eleger	-11.3007
▁dramática	-11.301
▁cuidado	-11.3011
control	-11.3016
▁cruzada	-11.3029
▁exigência	-11.3031
flag	-11.3033
▁plana	-11.3035
▁alvi	-11.3042
▁costeira	-11.3042
▁escultor	-11.3043
▁virou	-11.3045
centro	-11.3046
▁indiano	-11.3046
▁firme	-11.3047
▁comandado	-11.305
▁road	-11.3052
▁bulgária	-11.3053
▁empreendimento	-11.3053
▁esperava	-11.3054
▁fundar	-11.3057
quio	-11.3063
▁tronco	-11.3064
▁cheio	-11.3064
etto	-11.3065
psic	-11.3065
▁remove	-11.3071
▁escolhe	-11.3072
▁ativista	-11.3074
▁marrocos	-11.3075
hot	-11.3079
▁manaus	-11.3081
▁determinação	-11.3083
▁comentou	-11.3086
▁popularmente	-11.3089
▁1895	-11.3089
▁bau	-11.309
▁prestígio	-11.3091
▁igualdade	-11.3098
▁mecânico	-11.3102
▁albuquerque	-11.3107
itou	-11.3108
▁hero	-11.311
string	-11.3113
▁(12	-11.3114
▁amaral	-11.3121
áculo	-11.3128
plasm	-11.3135
▁colónia	-11.3136
▁isolada	-11.3136
canto	-11.3139
▁cabral	-11.3141
▁susan	-11.3141
▁victoria	-11.3144
ppe	-11.3145
▁concede	-11.3146
▁indonésia	-11.3146
kle	-11.3146
▁alerta	-11.3148
▁henri	-11.3149
alien	-11.3149
▁acompanhou	-11.3151
normal	-11.3155
▁costume	-11.3155
▁leopoldo	-11.3157
▁precursor	-11.3157
bury	-11.316
ο	-11.3162
▁múltiplo	-11.3162
▁renunciou	-11.3162
eirão	-11.3163
▁processador	-11.3167
▁sagrou	-11.3168
▁vigário	-11.3168
▁blog	-11.3169
▁acompanhar	-11.3172
▁cinquenta	-11.3173
▁comarca	-11.3173
▁ligadas	-11.3177
ífic	-11.3183
nun	-11.3183
▁criminoso	-11.3184
▁chefia	-11.3186
stand	-11.3187
▁linguística	-11.319
▁comendador	-11.3196
carbon	-11.3197
vid	-11.3197
qué	-11.3198
▁coral	-11.3199
▁painel	-11.32
▁educacional	-11.3201
mare	-11.3204
▁gerencia	-11.3205
▁mineira	-11.3205
▁embaixada	-11.3206
▁mantinha	-11.3209
▁permitia	-11.3212
▁carlo	-11.3213
ítica	-11.3214
fonte	-11.3214
institut	-11.3215
▁armênia	-11.3217
▁caridade	-11.3217
mine	-11.322
▁agenda	-11.3223
ground	-11.3223
▁prestes	-11.3223
“	-11.3224
▁procurou	-11.3228
spirit	-11.3229
▁faça	-11.3231
▁recebem	-11.3232
ffer	-11.3233
▁tomás	-11.3233
▁caracterizada	-11.3236
▁massacre	-11.3239
▁ligeiramente	-11.3242
▁arquitecto	-11.3245
▁testemunho	-11.3245
▁fab	-11.325
phe	-11.3252
▁condiciona	-11.3253
alco	-11.3258
▁inventa	-11.326
▁pecado	-11.3261
▁idiomas	-11.3261
▁pontifícia	-11.3261
script	-11.3263
▁historicamente	-11.3267
▁benefícios	-11.3271
▁recorre	-11.3271
▁inovação	-11.3272
▁orgânica	-11.3272
gger	-11.3273
▁imper	-11.3274
▁tirar	-11.3276
▁legião	-11.3278
▁culmina	-11.3281
▁helen	-11.3282
▁dourada	-11.3283
kawa	-11.3286
▁teórico	-11.329
▁apóstolo	-11.3291
▁proibido	-11.3295
▁civilização	-11.3296
▁ciclone	-11.3296
▁designa	-11.3301
borg	-11.3305
▁materno	-11.3306
▁australiano	-11.3306
▁coordenação	-11.3307
▁oriundo	-11.3311
▁disposto	-11.3314
▁choque	-11.3316
3)	-11.3317
bridge	-11.3324
corp	-11.3326
lex	-11.3327
▁regista	-11.3328
dru	-11.3329
▁diretores	-11.3329
▁geográfico	-11.333
▁preocupa	-11.3332
▁aviso	-11.3333
▁adulta	-11.3333
▁elaborado	-11.3339
▁mistas	-11.3339
▁dragão	-11.3339
membro	-11.3341
▁tecnológico	-11.3345
▁observações	-11.3345
▁messi	-11.3349
▁automóveis	-11.335
▁anglo	-11.3351
▁norman	-11.3352
▁miami	-11.3353
▁configura	-11.3354
▁servido	-11.3355
▁vence	-11.3355
élio	-11.3356
▁astronauta	-11.3361
▁eliminatórias	-11.3362
▁promoveu	-11.3362
spring	-11.3367
clar	-11.3372
▁mundialmente	-11.3375
ênico	-11.3378
wel	-11.338
▁colonos	-11.3383
▁músculo	-11.3384
▁marciais	-11.3386
▁violão	-11.3389
▁desastre	-11.339
▁1896	-11.3391
menti	-11.3393
▁romântico	-11.3395
▁ingresso	-11.34
▁existiam	-11.3403
▁escada	-11.3404
▁islâmico	-11.3406
american	-11.3409
▁rotação	-11.341
▁opiniões	-11.3412
care	-11.3413
▁(5	-11.3414
▁holandês	-11.3417
▁chineses	-11.3417
voz	-11.3422
▁equador	-11.3424
▁votado	-11.3424
lido	-11.3425
▁precede	-11.3425
coli	-11.343
▁alexandr	-11.3434
▁indicando	-11.3436
▁realizando	-11.3439
▁contempla	-11.344
▁vara	-11.3442
trac	-11.3442
▁cidadania	-11.3446
▁preferência	-11.3446
▁provocou	-11.3446
▁afastado	-11.3446
▁biologia	-11.3448
▁recebida	-11.3451
▁cartão	-11.3451
▁manchester	-11.3453
ntino	-11.3454
▁corredor	-11.3455
▁exposto	-11.3457
tudo	-11.3458
▁espelho	-11.3463
▁avançada	-11.3463
big	-11.3464
mãe	-11.3477
▁madrugada	-11.3479
hat	-11.3481
▁destacado	-11.3482
л	-11.3485
▁sugeriu	-11.3485
▁colocando	-11.3486
▁ênfase	-11.3491
▁manobra	-11.3491
▁opta	-11.3493
▁atacado	-11.3496
baix	-11.3499
mund	-11.3503
vibra	-11.3504
▁cala	-11.3506
▁chuvas	-11.3507
alto	-11.3507
▁institucional	-11.3508
▁finlândia	-11.3509
▁confronta	-11.3509
▁regulamento	-11.351
▁precisava	-11.351
▁encosta	-11.3515
privat	-11.3518
mila	-11.3519
▁inicio	-11.3519
np	-11.3519
▁revelação	-11.352
▁"“	-11.352
▁gilberto	-11.3522
▁separado	-11.3523
▁country	-11.3525
▁pneu	-11.3526
econom	-11.353
▁estratégica	-11.3531
▁grade	-11.3531
▁deverá	-11.3532
▁twitter	-11.3536
▁falantes	-11.3541
▁invadir	-11.3542
▁terço	-11.3546
wild	-11.3546
▁dispara	-11.3546
▁garantiu	-11.3548
▁criaram	-11.3551
▁assegurar	-11.3551
▁distribuídos	-11.3553
▁citada	-11.3553
▁suspensão	-11.3553
▁antecipa	-11.3553
▁1898	-11.3556
▁passeio	-11.3559
▁adrian	-11.3559
▁plástica	-11.3559
▁cúpula	-11.3571
▁homer	-11.3572
▁desafia	-11.3575
▁atrai	-11.3576
▁divino	-11.3577
▁consenso	-11.3582
▁batizado	-11.3583
médio	-11.3584
▁barreto	-11.3584
▁moore	-11.3586
promo	-11.3587
▁falecimento	-11.3588
ónimo	-11.359
▁incorporado	-11.359
▁parecer	-11.3592
▁paralela	-11.3593
▁esquadrão	-11.3593
▁sax	-11.3593
bah	-11.3594
▁plant	-11.3594
tier	-11.3594
pari	-11.36
▁giro	-11.3602
larga	-11.3603
▁levam	-11.3603
▁vingança	-11.3605
diário	-11.3606
rib	-11.3609
▁projetada	-11.3611
▁participado	-11.3613
cket	-11.3614
▁soube	-11.3615
▁moléculas	-11.3616
▁afiliada	-11.3616
▁perfeito	-11.362
▁colapso	-11.3622
▁oxford	-11.3622
hí	-11.3623
▁lang	-11.3624
▁electro	-11.3626
▁servidores	-11.3632
▁enfraquec	-11.3634
▁simplifica	-11.3634
▁beach	-11.3634
▁férias	-11.3635
▁eficiência	-11.3639
▁lesões	-11.3644
▁painéis	-11.3645
cais	-11.3646
▁controlada	-11.3646
▁diminuição	-11.3648
▁1897	-11.3652
▁mach	-11.3652
▁construtor	-11.3654
▁estranha	-11.3657
▁brito	-11.3659
▁simboliza	-11.3662
▁inácio	-11.3664
shima	-11.3667
▁imposto	-11.3669
▁antena	-11.367
▁piscina	-11.3674
▁demônio	-11.3677
media	-11.3681
▁suprema	-11.3685
▁consoante	-11.3685
▁penetra	-11.3686
▁traços	-11.3689
-14	-11.3694
▁series	-11.3695
▁servia	-11.3703
▁maría	-11.3704
▁hd	-11.3708
▁botânico	-11.3714
▁fragmentos	-11.3714
propria	-11.3718
▁secção	-11.372
▁sofrido	-11.372
wind	-11.3722
▁agraciado	-11.3726
▁criminal	-11.3726
▁abreu	-11.3729
▁capturar	-11.3732
logicamente	-11.3733
crônica	-11.3736
▁instrumental	-11.3738
▁billy	-11.3741
▁codice	-11.3743
▁efetivo	-11.3745
▁verbo	-11.3746
▁eliminação	-11.3747
▁filipinas	-11.3749
berna	-11.375
▁treina	-11.3756
ntin	-11.3757
▁ocupando	-11.3758
▁morgan	-11.3758
▁simpson	-11.3761
▁perderam	-11.3763
▁patrocina	-11.3764
▁conseguem	-11.3764
▁prazer	-11.3765
▁habitat	-11.3766
▁cilindro	-11.3772
▁fabricado	-11.3774
▁concluir	-11.3775
▁favorável	-11.3777
cf	-11.3777
hand	-11.3777
▁brinquedo	-11.3784
▁permitido	-11.3784
▁relatado	-11.3787
▁terminado	-11.3788
▁minerais	-11.379
▁medicamentos	-11.3795
▁circunstâncias	-11.3796
receptor	-11.3797
fique	-11.3798
▁profundamente	-11.3798
▁abundante	-11.3801
herói	-11.3804
▁thor	-11.3806
▁nicola	-11.3809
▁vasconcelos	-11.3813
▁grafo	-11.3818
▁inédito	-11.3819
▁escapa	-11.382
nega	-11.382
mount	-11.3822
▁friedrich	-11.3825
▁petr	-11.3825
torial	-11.3827
▁lutadores	-11.383
▁decidido	-11.3834
ucci	-11.384
▁martinho	-11.384
centr	-11.384
remos	-11.3844
▁tocada	-11.3848
▁coligação	-11.3848
▁desportivo	-11.3848
▁andares	-11.3852
▁escândalo	-11.3854
▁impulso	-11.3854
▁necessariamente	-11.3854
eletr	-11.3857
▁toque	-11.3857
alt	-11.3859
▁fotógrafo	-11.386
▁privilégio	-11.386
▁jesuítas	-11.3861
pter	-11.3861
dinha	-11.3863
▁tigre	-11.3865
▁excesso	-11.3866
condi	-11.3867
ólica	-11.3868
▁nápoles	-11.3872
▁oxigênio	-11.3872
▁aprendizagem	-11.3872
▁zagueiro	-11.3873
▁fiéis	-11.3874
world	-11.3875
▁abandonada	-11.3879
comunica	-11.3882
telecomunicações	-11.3884
▁religiões	-11.3884
▁transmissões	-11.3885
▁banho	-11.3885
▁reconhecer	-11.3887
▁julie	-11.3888
ésio	-11.389
▁graduou	-11.3891
▁jimmy	-11.3891
inaugura	-11.3895
família	-11.3895
▁certeza	-11.3895
▁facebook	-11.3896
▁gerando	-11.3898
▁reações	-11.3898
▁armazenamento	-11.39
▁correspondência	-11.3901
▁universitária	-11.3901
▁concorrentes	-11.3905
ı	-11.3907
▁denuncia	-11.3907
▁caribe	-11.3907
melan	-11.3908
▁roubo	-11.3909
▁caracteres	-11.3914
▁atraso	-11.3918
tivismo	-11.3922
conceitua	-11.3925
▁isolado	-11.3927
▁explorar	-11.3929
dução	-11.3934
▁centenário	-11.3937
▁institute	-11.3941
▁1899	-11.3941
▁honorário	-11.3941
▁geraldo	-11.3941
diano	-11.3942
point	-11.3945
▁inspira	-11.3947
▁sobra	-11.3951
coreana	-11.3958
▁emancipação	-11.3959
▁limpa	-11.396
▁regresso	-11.3961
child	-11.3961
negro	-11.3962
▁encanta	-11.3967
▁embarca	-11.3968
▁abastecimento	-11.3972
▁dezesseis	-11.3972
▁racional	-11.3973
▁reside	-11.3974
mission	-11.3977
▁dividir	-11.3978
cendi	-11.3979
▁traseira	-11.398
▁merece	-11.3987
▁fazê	-11.3991
▁adotada	-11.3993
▁voltaram	-11.3996
▁patrocínio	-11.3996
▁difíceis	-11.3996
board	-11.3997
▁certamente	-11.3997
▁navega	-11.4001
▁síntese	-11.4002
▁ícone	-11.4002
▁kris	-11.4004
▁augusta	-11.4006
▁irrita	-11.4007
▁greve	-11.4009
▁unesco	-11.401
▁cardeais	-11.4014
▁contacto	-11.4017
▁trigo	-11.402
▁traduz	-11.4024
gica	-11.4025
thal	-11.4026
▁1885	-11.4027
▁postura	-11.4029
▁registrou	-11.403
▁assembléia	-11.4032
▁convertido	-11.4032
▁magazine	-11.4038
▁convidou	-11.4038
▁perfeita	-11.4039
▁judeu	-11.404
▁lord	-11.4041
série	-11.4044
▁consigo	-11.4045
▁correr	-11.4047
▁moraes	-11.4047
▁nogueira	-11.4048
bí	-11.405
▁modificações	-11.4052
▁vitor	-11.4058
▁exclusiva	-11.406
▁cruzamento	-11.4062
▁minuto	-11.4064
▁1893	-11.4068
▁consagrado	-11.4072
▁benfica	-11.4072
▁característico	-11.4074
▁jordan	-11.4074
▁confere	-11.4078
hã	-11.4079
miro	-11.4079
lah	-11.408
shaw	-11.4082
▁render	-11.4084
▁histo	-11.4086
▁custa	-11.4087
▁sacro	-11.4087
▁patrick	-11.4088
lente	-11.4093
▁controlo	-11.4095
▁funcional	-11.4095
▁harmonia	-11.4098
▁condessa	-11.4099
▁dirige	-11.4101
▁liberais	-11.4102
▁instruções	-11.4103
▁provar	-11.4107
▁paço	-11.411
ventura	-11.412
▁falado	-11.4121
▁josef	-11.4125
▁falso	-11.4126
▁apareceram	-11.4128
kho	-11.4133
▁clemente	-11.4134
▁raimundo	-11.4134
▁expulsa	-11.4134
▁bruxa	-11.4137
▁camargo	-11.414
bow	-11.4142
▁principado	-11.4142
▁golfo	-11.4144
▁fraca	-11.4146
▁elimina	-11.4149
..."	-11.4152
fried	-11.4156
sparta	-11.4157
▁presbiteriana	-11.4158
▁abade	-11.4161
▁mansão	-11.4163
consult	-11.4164
▁assemelha	-11.4164
▁tentaram	-11.4165
▁1892	-11.4166
▁absoluto	-11.4168
▁indicar	-11.4168
▁ann	-11.4168
▁manu	-11.4174
▁contesta	-11.4175
▁diplomática	-11.4177
▁mensal	-11.4191
▁diminuir	-11.4193
ográfica	-11.4194
▁itunes	-11.4195
gest	-11.4196
▁elétrons	-11.4197
▁batman	-11.4203
▁facilitar	-11.4203
embora	-11.4204
▁contratação	-11.4204
express	-11.4207
cchi	-11.4208
gena	-11.4211
▁permaneceram	-11.4213
▁habitual	-11.4213
▁linguagens	-11.4213
▁isaac	-11.4213
▁atacou	-11.4214
▁metais	-11.4217
stock	-11.422
▁diversifica	-11.422
▁compositora	-11.4222
▁induz	-11.4227
▁optou	-11.4228
zoo	-11.4228
▁(13	-11.4231
▁dieta	-11.4231
▁comandada	-11.4234
▁freire	-11.4237
▁flávio	-11.4237
▁peculiar	-11.4237
▁tênis	-11.4238
▁1888	-11.4239
gali	-11.4241
_6	-11.4245
▁biológica	-11.4247
gb	-11.4251
joy	-11.4254
▁coleções	-11.4254
▁competiu	-11.4256
▁aceitação	-11.4259
▁perceber	-11.426
2,5	-11.4261
▁australiana	-11.4262
▁ossos	-11.4264
clube	-11.4264
tila	-11.4267
▁inscrições	-11.4268
▁tavares	-11.4268
riedade	-11.4273
▁maomé	-11.4274
▁hidrogênio	-11.428
▁elevação	-11.4282
▁morris	-11.4284
▁atuações	-11.4288
▁nacionalidade	-11.4295
▁renuncia	-11.4305
▁tragédia	-11.4305
▁defensores	-11.4305
rov	-11.4308
▁propõe	-11.431
▁tetra	-11.4311
æ	-11.4311
▁recolhe	-11.4312
▁regina	-11.4312
▁falando	-11.4313
▁leitores	-11.4319
veni	-11.4321
estri	-11.4325
▁ascendência	-11.4329
▁telefônica	-11.4329
ísmo	-11.433
ornamenta	-11.4332
▁celebração	-11.4332
austral	-11.4333
▁exposta	-11.4337
▁búlgaro	-11.4342
▁holandesa	-11.4342
éria	-11.4345
▁exteriores	-11.4347
▁instala	-11.4347
т	-11.4348
▁locomotiva	-11.4348
▁automaticamente	-11.4348
▁flo	-11.4349
órica	-11.4354
▁sobreviveu	-11.4355
▁vegetais	-11.4364
▁donald	-11.4373
mercado	-11.4374
▁divindade	-11.4379
▁agostinho	-11.4379
▁chegado	-11.4381
▁pastoral	-11.4381
bole	-11.4382
▁atesta	-11.4384
▁tecnológica	-11.4385
▁estabeleceram	-11.4388
▁publicamente	-11.439
▁arquitectura	-11.4391
▁violento	-11.4391
▁cambridge	-11.4391
ambient	-11.4392
▁leal	-11.4392
mã	-11.4393
thy	-11.4396
▁planejado	-11.4396
▁interrompe	-11.4397
▁1860	-11.4398
▁novidade	-11.4403
▁impulsiona	-11.4404
▁matando	-11.4406
princip	-11.441
▁divisa	-11.441
▁desenhado	-11.441
▁afirmam	-11.4417
matri	-11.4417
▁romântica	-11.4422
▁parcial	-11.4424
▁luxo	-11.4426
▁definitiva	-11.4428
antí	-11.4428
▁volante	-11.4428
▁granada	-11.4431
▁informou	-11.4435
▁reflete	-11.4435
fila	-11.4435
palazzo	-11.4437
▁bônus	-11.4441
▁sobrevivência	-11.4441
▁máscara	-11.4441
▁visuais	-11.4441
▁barroco	-11.4442
▁rosário	-11.4442
opera	-11.4448
▁gordon	-11.4449
▁surgir	-11.4449
teatro	-11.445
▁spa	-11.4459
▁ambientais	-11.446
ítico	-11.4462
tipo	-11.4463
try	-11.4464
▁conduzir	-11.4464
▁tentam	-11.4466
ónio	-11.4469
integra	-11.447
▁demonstrou	-11.4472
▁espectáculo	-11.4472
▁falou	-11.4472
▁identificada	-11.4475
▁pescoço	-11.4478
kö	-11.4479
▁television	-11.448
▁bits	-11.4485
▁catalã	-11.4488
▁transtorno	-11.4491
legend	-11.4493
▁instalou	-11.4497
▁compacto	-11.4498
glia	-11.4498
plex	-11.4498
ófilo	-11.4498
▁honor	-11.45
▁budista	-11.45
▁xbox	-11.45
▁reina	-11.4506
▁hélio	-11.4507
▁josh	-11.4508
▁garante	-11.4508
▁magno	-11.4509
▁mü	-11.4509
▁árbitro	-11.451
antiga	-11.4518
▁gaspar	-11.452
▁retro	-11.4525
▁50%	-11.4526
▁bolívia	-11.4535
▁imóvel	-11.4535
tip	-11.4546
▁lauren	-11.4546
▁equações	-11.4548
▁instalar	-11.4549
▁valoriza	-11.4549
▁hetero	-11.4551
▁sensação	-11.4554
▁exilado	-11.4556
força	-11.4557
▁lida	-11.4557
▁sampaio	-11.456
▁qualificação	-11.4561
▁lento	-11.4562
fundador	-11.4562
▁contratou	-11.4569
primeiro	-11.4569
body	-11.457
▁benjamin	-11.4572
▁aprovou	-11.4573
vó	-11.4573
▁metropolitano	-11.4576
▁modificado	-11.4577
▁deslocamento	-11.4578
▁pecuária	-11.4579
▁falada	-11.4582
rell	-11.4583
▁gravidade	-11.4585
química	-11.4587
▁circo	-11.4589
▁sobreviver	-11.4592
sobre	-11.4592
▁lula	-11.4597
camb	-11.46
▁week	-11.4601
▁variados	-11.4603
▁estabilidade	-11.4604
organiz	-11.4605
▁marítimo	-11.461
▁predi	-11.4615
▁sacramento	-11.4617
partidário	-11.4617
ndê	-11.4621
▁ampliação	-11.4621
▁contínuo	-11.4623
nsi	-11.4625
▁efetivamente	-11.4626
▁pioneira	-11.4629
▁infelizmente	-11.4632
celo	-11.4633
ixo	-11.4633
▁beatriz	-11.4636
▁1894	-11.4636
▁favorece	-11.4637
▁apaixonado	-11.4647
expedi	-11.4649
volve	-11.4649
▁inferiores	-11.4657
300	-11.4658
cheiro	-11.4659
▁precipitação	-11.4659
saka	-11.4662
▁london	-11.4663
cken	-11.4664
▁invoca	-11.4664
▁recorrente	-11.4674
▁levi	-11.4678
▁walt	-11.4678
▁multidão	-11.4678
▁ajudando	-11.4679
bird	-11.468
▁magnitude	-11.468
▁1886	-11.4683
▁sediado	-11.4685
▁denúncia	-11.4687
▁arranja	-11.4687
▁sultão	-11.4687
▁marina	-11.4688
▁recebia	-11.4693
▁adaptada	-11.4694
▁libras	-11.4698
å	-11.4699
magnética	-11.47
bord	-11.4702
▁pedindo	-11.4703
▁eclesiástica	-11.4706
pg	-11.4706
▁gramática	-11.4709
▁pobreza	-11.4715
cino	-11.4716
▁preparar	-11.4718
▁documentação	-11.4718
▁expandir	-11.4719
▁football	-11.4719
▁avaliações	-11.4721
▁socio	-11.4721
▁carvão	-11.4721
▁massachusetts	-11.4725
▁bloqueio	-11.4732
▁flash	-11.4733
▁patrono	-11.4733
▁pudessem	-11.4735
revista	-11.4738
▁galáxia	-11.4738
zona	-11.4739
black	-11.474
▁possuí	-11.474
▁terrorista	-11.4748
▁chamando	-11.475
▁comemoração	-11.475
▁centímetros	-11.4751
▁kennedy	-11.4751
▁ritual	-11.4759
▁sporting	-11.477
▁contagem	-11.4775
▁desenhada	-11.4777
▁pronta	-11.4778
ênica	-11.4778
▁anexo	-11.4779
referencia	-11.478
imagin	-11.4781
tério	-11.4783
▁coordenadas	-11.4786
contamina	-11.4788
▁embarcações	-11.4789
▁turística	-11.4791
▁atrações	-11.4792
sonic	-11.4794
▁armando	-11.4795
▁mudando	-11.4796
▁cearense	-11.4796
▁mamíferos	-11.4796
▁misericórdia	-11.4796
▁sérvio	-11.4796
▁regência	-11.4796
▁alfred	-11.4797
▁don	-11.4798
invest	-11.4799
jogador	-11.4801
▁feridos	-11.4802
▁originou	-11.4802
▁prado	-11.4805
▁colaboradores	-11.4809
corrido	-11.4811
▁animada	-11.4812
▁francesco	-11.4812
▁mineral	-11.4812
maco	-11.4813
▁procurando	-11.4815
▁suíço	-11.4815
▁designer	-11.4817
campeã	-11.482
▁renascimento	-11.4822
orden	-11.4823
▁tropicais	-11.4828
ا	-11.4828
▁restaurado	-11.4829
▁combinado	-11.4829
▁telhado	-11.483
antrop	-11.4832
cerca	-11.4833
▁presidiu	-11.4835
▁harvard	-11.4835
▁leitor	-11.4838
▁apontado	-11.4839
▁naturalmente	-11.4839
▁hierarquia	-11.4841
▁rivais	-11.4841
▁compõem	-11.4842
▁jogada	-11.4843
▁administrado	-11.4846
poly	-11.4847
▁anthony	-11.4848
▁protegido	-11.4848
▁cunhado	-11.4849
gü	-11.4854
▁acentua	-11.4855
▁ideais	-11.4855
▁leito	-11.4858
▁malha	-11.4859
▁sorocaba	-11.4861
▁ideologia	-11.4861
▁fauna	-11.4862
agua	-11.4865
▁elogiou	-11.4867
▁goiânia	-11.4867
▁cantada	-11.4869
▁atentado	-11.4869
▁labor	-11.4869
cedido	-11.487
▁horta	-11.4872
▁vendendo	-11.4874
▁julgado	-11.4884
▁saindo	-11.4886
▁bárbara	-11.4887
▁automóvel	-11.4887
▁batt	-11.4889
▁doméstica	-11.4893
▁estrear	-11.4893
▁story	-11.4896
▁consumidor	-11.4898
qü	-11.4898
face	-11.4898
▁palestina	-11.49
▁galiza	-11.49
▁responder	-11.4901
peregrin	-11.4906
▁horror	-11.4909
▁concebido	-11.4913
▁helicóptero	-11.4919
▁foge	-11.4922
▁difusão	-11.4926
▁pseudo	-11.4926
servi	-11.493
process	-11.4931
ocean	-11.4931
▁propriamente	-11.4933
▁restauro	-11.4934
▁infecção	-11.4939
▁definitivo	-11.494
oficial	-11.4942
▁schu	-11.4943
▁genebra	-11.4945
▁vegetal	-11.4945
▁repercussão	-11.4945
▁removido	-11.4946
chy	-11.4948
owski	-11.4948
autor	-11.4951
▁dezoito	-11.4952
homem	-11.4953
▁anarquista	-11.4958
▁andy	-11.4964
▁subúrbio	-11.4965
maravilha	-11.4965
▁inscrito	-11.4965
▁impressiona	-11.497
▁representações	-11.4971
▁nuno	-11.4971
▁broadway	-11.4972
▁estratégico	-11.4972
▁orlando	-11.4972
life	-11.4972
▁empregada	-11.4974
▁perna	-11.4977
▁juízes	-11.4978
▁correto	-11.4987
▁edgar	-11.499
▁olimpíadas	-11.4991
▁intra	-11.4995
▁past	-11.4997
▁agremiação	-11.4998
▁christopher	-11.4998
▁económico	-11.4998
▁linhagem	-11.5002
▁mortais	-11.5005
atlan	-11.5008
▁engloba	-11.5011
▁dominic	-11.5012
forte	-11.5013
▁estável	-11.5013
▁protege	-11.5016
▁cerebral	-11.5018
▁aclamado	-11.5018
▁carregado	-11.5019
▁mandado	-11.5019
▁surf	-11.5021
▁convencional	-11.5024
▁observou	-11.5024
▁mencionada	-11.5026
gent	-11.5027
phone	-11.504
missões	-11.5041
heavy	-11.5044
▁instância	-11.5045
▁fatal	-11.5047
▁pequim	-11.5047
fast	-11.5049
▁decisiva	-11.5058
▁estimado	-11.5059
▁frutas	-11.5062
400	-11.5064
▁florianópolis	-11.5064
▁inserido	-11.5064
▁luciano	-11.5064
▁rumores	-11.5065
▁químicos	-11.5066
▁decorado	-11.5067
rubi	-11.5069
▁évora	-11.5069
▁mobiliza	-11.5072
▁harold	-11.5075
ieri	-11.5076
▁liverpool	-11.5077
▁concorrência	-11.5077
▁inspirou	-11.5077
▁macro	-11.5081
▁milton	-11.5083
▁tendem	-11.5083
▁ferrari	-11.5088
▁sentiu	-11.509
▁rain	-11.5092
▁estabelecendo	-11.5095
▁nba	-11.5095
▁produzem	-11.5096
▁fazendeiro	-11.5097
▁cursou	-11.51
etta	-11.5104
democrat	-11.5107
▁aprende	-11.5107
▁mercadorias	-11.5107
íba	-11.511
▁levantamento	-11.5112
▁vertente	-11.5116
▁menção	-11.5117
filho	-11.5117
▁ressalta	-11.5117
▁cripto	-11.5119
▁aglomerado	-11.5124
▁vazio	-11.5125
▁1884	-11.5126
▁sydney	-11.5131
glori	-11.5137
▁ocasiona	-11.5137
▁etno	-11.514
▁acabaria	-11.5141
▁nervoso	-11.5144
▁incorporada	-11.5145
▁verba	-11.5149
▁cristóvão	-11.5151
▁vértice	-11.5151
▁mártir	-11.5151
puseram	-11.5152
▁mudado	-11.5157
▁juntaram	-11.5157
privilegia	-11.5157
▁cardíaco	-11.5157
▁sociologia	-11.5158
▁adotar	-11.516
><	-11.5161
▁apresentaram	-11.5161
▁sargento	-11.5164
lui	-11.5166
▁culinária	-11.5171
▁fátima	-11.5171
filme	-11.5173
velha	-11.5174
▁sacrifício	-11.5177
▁vantagens	-11.5177
▁operado	-11.5178
tsch	-11.518
▁restrições	-11.5184
western	-11.5185
▁desvio	-11.5186
▁enfatiza	-11.5191
wee	-11.5196
▁newton	-11.52
▁franz	-11.5207
▁eliminar	-11.5207
▁transformando	-11.5208
▁pavilhão	-11.5211
900	-11.5218
crom	-11.5219
▁trazido	-11.5222
▁afeganistão	-11.5224
▁justamente	-11.5224
▁paralelamente	-11.5226
▁parecido	-11.5227
▁sabendo	-11.5227
▁whit	-11.5227
▁consistente	-11.5234
▁executiva	-11.5238
▁absorve	-11.5238
▁coutinho	-11.5238
▁acolhe	-11.5243
▁reconheceu	-11.5244
▁suplente	-11.5245
▁condecorado	-11.5251
existe	-11.5252
▁atualidade	-11.5259
programa	-11.5265
▁tática	-11.5265
▁virada	-11.5265
▁africanos	-11.5267
▁sigla	-11.5272
fato	-11.5273
enco	-11.5273
▁vêm	-11.5274
▁converteu	-11.5276
▁ilumina	-11.5277
▁homenageado	-11.5278
▁pseudônimo	-11.5278
▁trabalham	-11.5278
–0	-11.5278
▁promovida	-11.5279
você	-11.528
judica	-11.5282
mula	-11.5284
ghi	-11.5284
▁esperar	-11.5285
▁divulgar	-11.529
▁know	-11.5292
▁chapéu	-11.5299
rique	-11.53
pesados	-11.5302
segundo	-11.5303
▁pertenceu	-11.5303
▁projeta	-11.5304
ovich	-11.5305
▁previsão	-11.5306
▁beta	-11.5318
▁paquistão	-11.5319
▁submetido	-11.5319
▁félix	-11.5319
▁magnético	-11.5319
▁fuzil	-11.532
vermelha	-11.5321
▁trabalhador	-11.5321
▁conduta	-11.5322
patro	-11.5322
▁lançando	-11.5323
▁entendimento	-11.5326
▁gonzaga	-11.5326
▁grávida	-11.5326
▁antecede	-11.5326
corro	-11.533
pix	-11.5331
tton	-11.5332
▁jerry	-11.5333
▁favoráveis	-11.5336
▁acompanhamento	-11.5337
▁decorrência	-11.534
▁brilho	-11.5341
▁deposita	-11.5341
▁legais	-11.5342
▁etnia	-11.5343
▁indireta	-11.5346
▁águia	-11.5346
▁theatre	-11.5347
▁madri	-11.5347
▁cbs	-11.535
▁dicionário	-11.5351
▁gases	-11.5352
blood	-11.5355
ividade	-11.5357
▁instru	-11.5358
bú	-11.5359
▁gratuito	-11.536
▁vogais	-11.536
▁altera	-11.5363
▁túnel	-11.5367
▁greg	-11.5367
▁pousa	-11.5373
▁passada	-11.5374
ν	-11.5374
ingen	-11.5375
▁mista	-11.5379
ôme	-11.538
▁matthew	-11.5381
▁sergipe	-11.5381
friend	-11.5381
mile	-11.5381
▁economista	-11.5383
▁examina	-11.5385
▁superar	-11.5386
▁papal	-11.5386
▁discussões	-11.5387
▁arsenal	-11.5387
ör	-11.5388
chester	-11.539
curso	-11.539
▁observada	-11.5394
▁enquadra	-11.5394
▁móvel	-11.5394
▁operacionais	-11.5396
ílico	-11.5397
▁febre	-11.54
▁like	-11.5401
▁ilustre	-11.5401
▁desenvolvendo	-11.5403
▁realizaram	-11.5403
cionária	-11.5408
▁surpreendente	-11.5409
č	-11.5415
▁tocantins	-11.5415
jogo	-11.5415
▁ensinar	-11.5416
▁hindu	-11.5417
lato	-11.5418
▁jurisdição	-11.5422
▁soberania	-11.5422
▁exibe	-11.5424
▁abrigar	-11.5424
▁parente	-11.5424
▁bonita	-11.5425
▁válido	-11.5426
how	-11.5427
livro	-11.5432
carro	-11.5433
▁resistente	-11.5435
▁bactérias	-11.5439
▁moderado	-11.5443
▁paterno	-11.5449
▁joelho	-11.5451
▁participam	-11.5455
▁pirâmide	-11.5456
▁muscular	-11.5458
▁meteoro	-11.5462
▁manifestação	-11.5462
▁divorcia	-11.5463
▁gaúcha	-11.5463
▁emitido	-11.5464
gota	-11.5467
▁lema	-11.5471
▁minho	-11.5472
▁sertão	-11.5473
parte	-11.5475
▁nucleares	-11.5476
▁nbc	-11.5479
▁motorista	-11.5482
▁totalidade	-11.5482
▁conservatório	-11.5486
ânea	-11.5487
▁investigar	-11.5489
▁vladimir	-11.5491
▁trindade	-11.5491
▁renome	-11.5491
▁taiwan	-11.5492
hold	-11.5492
▁temporariamente	-11.5498
step	-11.55
μ	-11.5504
▁escritura	-11.5505
▁conduziu	-11.5505
▁transportado	-11.5512
▁colaborador	-11.5513
▁puro	-11.5513
▁votou	-11.5513
▁explicação	-11.5514
▁reeleição	-11.5518
▁inferno	-11.5518
▁afirmação	-11.552
▁laços	-11.5525
promulga	-11.5525
▁adjacente	-11.5525
▁cuidar	-11.5527
▁oferecendo	-11.5527
▁tocava	-11.5528
▁comparada	-11.553
▁tito	-11.5535
nard	-11.5539
▁alagoas	-11.5539
▁empresarial	-11.5539
boot	-11.5544
schwa	-11.5544
▁luxemburgo	-11.5546
recht	-11.5546
▁criadores	-11.5548
▁desaparecimento	-11.5553
▁revolucionária	-11.556
▁fortalece	-11.556
▁utilidade	-11.5561
▁gerenciamento	-11.5563
▁proteína	-11.5566
▁obstáculo	-11.5567
utc	-11.5572
▁paroquial	-11.5574
▁stewart	-11.5574
▁summer	-11.5574
íaco	-11.5575
▁impressionante	-11.5576
▁observatório	-11.5576
kun	-11.5577
crito	-11.5579
▁requisitos	-11.5581
noite	-11.5581
▁parou	-11.5582
▁pensado	-11.5582
–19	-11.5588
▁clero	-11.5594
▁concordou	-11.5595
▁crow	-11.5598
▁estudado	-11.56
▁suposto	-11.5602
▁guanabara	-11.5602
▁detém	-11.5605
graph	-11.5607
▁1881	-11.5609
▁navegador	-11.5613
▁severo	-11.5616
▁1878	-11.5619
▁biológico	-11.5623
▁bicicleta	-11.5623
mulher	-11.5624
▁delta	-11.5626
▁exata	-11.5632
▁lembrar	-11.5634
▁rogério	-11.5637
▁algarve	-11.5637
agora	-11.564
▁atrair	-11.5642
cell	-11.5643
▁republicana	-11.5644
never	-11.5645
▁premier	-11.5645
▁voar	-11.5651
▁hostil	-11.5651
bha	-11.5654
▁pegar	-11.5655
▁1850	-11.5657
▁entregou	-11.5658
gula	-11.5659
▁costumava	-11.566
▁finalização	-11.5661
matsu	-11.5665
dler	-11.5666
▁moon	-11.5667
glio	-11.5668
▁falência	-11.567
▁ensinamentos	-11.5673
▁duro	-11.5678
chave	-11.5678
▁360	-11.5679
▁selvagem	-11.568
▁preservar	-11.5682
▁fêmea	-11.5683
▁timor	-11.5685
▁esquece	-11.5686
natural	-11.5688
rite	-11.5691
▁percebeu	-11.5692
▁lavra	-11.5694
▁mago	-11.5695
valentin	-11.5699
▁adoção	-11.5699
▁alterada	-11.5699
eye	-11.57
▁tau	-11.57
gravi	-11.5703
table	-11.5703
▁acorde	-11.5706
×	-11.5707
zela	-11.5709
▁buscando	-11.5709
▁primitivo	-11.5712
tropical	-11.5714
▁jeito	-11.5714
▁governamentais	-11.5715
ordem	-11.5719
▁lorde	-11.572
▁fictício	-11.5729
▁espaciais	-11.5729
▁toledo	-11.5729
▁determinou	-11.573
ddle	-11.573
▁fã	-11.5736
▁diplomata	-11.5738
▁minoria	-11.5739
▁autorizado	-11.574
▁adriano	-11.5742
▁aplicar	-11.5747
▁parlamentares	-11.5747
ρ	-11.575
▁intermediário	-11.575
▁delegação	-11.5751
▁pertencem	-11.5754
▁macaco	-11.5757
sexual	-11.5758
▁criticado	-11.5758
▁imediata	-11.5764
nucle	-11.5766
▁wayne	-11.5769
▁compromete	-11.5771
▁feminista	-11.5771
▁mágica	-11.5772
patia	-11.5773
2.000	-11.5773
▁totalizando	-11.5775
▁lentamente	-11.5778
▁comunicado	-11.5778
▁percepção	-11.5778
▁1887	-11.578
▁cartões	-11.5788
órico	-11.5788
▁aguarda	-11.5789
▁acusação	-11.5789
▁sueca	-11.5793
▁came	-11.5793
▁tinta	-11.5795
▁fernanda	-11.5796
problem	-11.5799
▁quadrado	-11.5799
termina	-11.5801
▁licenciatura	-11.5801
▁socorro	-11.5801
▁sonha	-11.5806
▁hardware	-11.5807
▁academy	-11.5807
▁complementa	-11.5808
impl	-11.5816
▁congrega	-11.5818
▁bateu	-11.5819
▁funcionalidade	-11.582
▁institui	-11.582
dolph	-11.5828
▁montreal	-11.5829
▁licencia	-11.5833
▁hospitais	-11.5835
▁diariamente	-11.5836
▁guy	-11.584
▁insetos	-11.5843
▁defendia	-11.5843
▁brinca	-11.5843
1.000	-11.5849
▁union	-11.585
▁wol	-11.5852
física	-11.5857
▁cancelado	-11.5857
▁ficaria	-11.5862
▁previamente	-11.5863
▁160	-11.5865
▁vasto	-11.5868
σ	-11.5871
▁televisiva	-11.5871
▁pessoalmente	-11.5877
cron	-11.5879
▁perseguido	-11.5879
▁sorteio	-11.5883
▁pablo	-11.5884
▁beatles	-11.5889
▁contêm	-11.5893
gazeta	-11.5893
▁leonor	-11.5894
tiba	-11.5894
▁arábia	-11.59
▁condutor	-11.5901
▁morava	-11.5901
▁1883	-11.5901
ísio	-11.5904
▁repetida	-11.5908
▁trato	-11.5913
▁xuxa	-11.5915
▁hamburgo	-11.5915
▁khan	-11.5918
▁concorrer	-11.5918
▁sobrinha	-11.592
▁tratava	-11.592
▁banha	-11.5921
▁tiver	-11.5924
▁preliminar	-11.5929
▁pátria	-11.593
▁pintado	-11.593
consciente	-11.593
▁licenciado	-11.593
▁tiago	-11.5933
▁defendendo	-11.5935
▁improvisa	-11.5936
▁conspiração	-11.5937
▁pilha	-11.594
quiri	-11.5943
▁informática	-11.5943
▁subsidiária	-11.5943
▁elogios	-11.5944
▁habitação	-11.5946
▁emocional	-11.5947
▁vaca	-11.5951
▁fundamento	-11.5952
▁anuais	-11.5954
▁tumor	-11.5959
génio	-11.5961
ved	-11.5963
tomo	-11.5964
▁coadjuvante	-11.5965
▁provisório	-11.5965
▁comissões	-11.597
▁expressões	-11.5971
▁explicou	-11.5972
congela	-11.5973
▁aeronáutica	-11.5973
▁contratada	-11.5973
▁abrindo	-11.5977
▁vietnã	-11.598
▁ginástica	-11.598
▁senhores	-11.598
ić	-11.5983
▁roque	-11.5986
▁1871	-11.5987
▁wagner	-11.5987
▁demonstração	-11.5988
ccio	-11.5989
▁enche	-11.6002
▁telespectadores	-11.6002
▁atlanta	-11.6003
▁riba	-11.6004
▁1500	-11.6007
▁horizontal	-11.6009
▁proibida	-11.6009
▁sugerem	-11.601
▁pacific	-11.6014
▁gótico	-11.6014
▁sequestra	-11.6016
ajusta	-11.6019
▁surpreende	-11.6022
ι	-11.6023
word	-11.6031
▁paisagens	-11.6032
▁avaliar	-11.6035
▁taka	-11.6035
▁refugiados	-11.6037
▁costumam	-11.6039
▁saturn	-11.6044
▁favorita	-11.6045
▁escavações	-11.6045
▁atraiu	-11.6047
▁one	-11.605
▁aposentou	-11.6053
▁teodoro	-11.6053
▁1882	-11.606
conjuga	-11.6062
▁tomaram	-11.6063
▁tocado	-11.6069
▁rossi	-11.608
▁poética	-11.6082
▁violino	-11.6082
▁redação	-11.6085
▁encontravam	-11.6086
▁parcela	-11.609
▁renovado	-11.6091
▁desapareceu	-11.6093
▁renúncia	-11.6097
▁gravidez	-11.6097
▁surgem	-11.6098
craft	-11.6102
▁clare	-11.6102
▁divórcio	-11.6104
▁antioquia	-11.6104
▁liberação	-11.6106
▁1875	-11.6107
▁traçado	-11.6108
condu	-11.6108
▁derrotando	-11.611
▁hebraico	-11.6111
▁tráfico	-11.6111
▁racing	-11.612
▁veneno	-11.6121
▁mortal	-11.6121
▁rebaixamento	-11.6126
▁sessenta	-11.6126
▁creditado	-11.6129
▁sagra	-11.6131
▁year	-11.6133
▁wilhelm	-11.6133
interpret	-11.6136
witch	-11.6139
▁reconquista	-11.6141
▁étnico	-11.6141
▁capitais	-11.6144
▁oscila	-11.6145
▁divulgada	-11.6146
▁evangélica	-11.6148
▁menezes	-11.6148
▁brevemente	-11.6153
▁mauro	-11.6155
▁alienígena	-11.6156
▁carácter	-11.6156
▁cerimónia	-11.6156
▁tomatoes	-11.6156
▁desenvolveram	-11.6162
▁concretiza	-11.6163
ífero	-11.6167
▁permanecem	-11.617
▁projeção	-11.617
consorte	-11.6171
▁eddie	-11.618
dimensional	-11.6185
▁terão	-11.6187
impe	-11.6191
▁tijolo	-11.6193
wor	-11.62
▁profeta	-11.62
▁cuida	-11.6202
▁sinfônica	-11.6208
▁urso	-11.621
ault	-11.6212
▁jantar	-11.6215
▁nec	-11.6217
▁sofrendo	-11.6218
▁discutir	-11.6222
▁dividiu	-11.6222
▁charlotte	-11.6222
▁fechou	-11.6223
sistema	-11.6223
▁venera	-11.6224
▁normais	-11.6225
▁junção	-11.6226
call	-11.6229
▁muçulmana	-11.623
▁encoraja	-11.623
▁proporção	-11.623
ásia	-11.6233
kura	-11.6233
▁milan	-11.6235
▁fósseis	-11.6237
▁furacão	-11.6237
▁devoção	-11.624
▁jaguar	-11.6242
▁treinado	-11.6243
▁consumidores	-11.6244
▁cardíaca	-11.6245
▁felicidade	-11.6245
▁verificar	-11.625
▁superman	-11.6251
▁islâmica	-11.6252
▁gêmeo	-11.6252
▁margaret	-11.6252
▁traça	-11.6252
▁assenta	-11.6257
▁ausente	-11.6258
▁córrego	-11.626
▁conquistada	-11.6261
▁oliver	-11.6265
▁russell	-11.6267
âmico	-11.6268
▁rebelde	-11.6271
▁noticia	-11.6272
▁robin	-11.6272
▁bater	-11.6273
▁sozinha	-11.6276
▁descarta	-11.6278
▁demora	-11.6281
muito	-11.6282
▁tailândia	-11.6283
berry	-11.6288
▁xadrez	-11.629
▁promocional	-11.629
quito	-11.6294
ς	-11.6297
_7	-11.6304
▁gramado	-11.6304
▁descendência	-11.6305
▁zor	-11.6307
▁jung	-11.6311
▁cinturão	-11.6312
▁urss	-11.6313
▁zumbi	-11.6313
▁critério	-11.6317
poca	-11.6317
▁barragem	-11.6319
▁imigração	-11.632
▁misteriosa	-11.632
▁plural	-11.632
▁gostava	-11.6323
nascida	-11.633
▁macedo	-11.6335
▁wright	-11.6337
walk	-11.634
▁vendo	-11.6342
▁assunção	-11.6342
▁distingue	-11.6342
▁originário	-11.6342
▁substitui	-11.6344
▁metacritic	-11.635
▁repressão	-11.6354
▁vegas	-11.6354
▁polonês	-11.6357
▁diferentemente	-11.6357
▁especialidade	-11.6363
▁geometria	-11.6365
journal	-11.6365
barb	-11.6366
▁pleito	-11.6366
depois	-11.6369
▁sofrimento	-11.6372
▁basta	-11.6379
▁amoroso	-11.6379
▁estabiliza	-11.6382
▁visitante	-11.6384
▁operadora	-11.6384
▁jurista	-11.6384
▁leciona	-11.6386
▁joel	-11.6386
▁negociação	-11.6387
▁futsal	-11.6388
▁bonito	-11.6388
▁pacto	-11.6394
poi	-11.6398
çá	-11.6403
▁vampiro	-11.6411
horn	-11.6413
ólio	-11.6416
▁aleixo	-11.6418
ífera	-11.642
adri	-11.6426
read	-11.6429
média	-11.6431
▁comentarista	-11.6434
▁perigoso	-11.6439
▁inaugurou	-11.6441
▁prevenção	-11.6441
▁reunido	-11.6442
▁antigamente	-11.6445
▁esmaga	-11.6446
▁observador	-11.6446
▁excelência	-11.6448
▁orientado	-11.6455
▁habitada	-11.6456
▁jonathan	-11.6456
▁romênia	-11.6456
idio	-11.6457
▁1876	-11.6458
▁colorado	-11.6459
nópolis	-11.646
izaram	-11.6463
▁rotten	-11.6463
talk	-11.6467
▁praticado	-11.6467
blind	-11.6468
▁czar	-11.647
▁levava	-11.647
▁suspeito	-11.6471
▁pólo	-11.6473
lateral	-11.6475
▁bourbon	-11.6479
nô	-11.6481
primo	-11.6483
escravo	-11.6484
▁distúrbio	-11.6486
▁obtenção	-11.6486
two	-11.649
▁alterar	-11.6493
▁funeral	-11.6494
ière	-11.6499
▁idealizado	-11.6499
equilibra	-11.6502
▁exportação	-11.6503
▁luso	-11.6507
▁editada	-11.6507
▁1864	-11.6508
τ	-11.6509
▁evidencia	-11.6509
▁esgota	-11.6514
▁cortado	-11.6521
▁prioridade	-11.6526
nhão	-11.6529
▁cruel	-11.653
orient	-11.653
vici	-11.653
▁arquitetônico	-11.6532
▁extenso	-11.6532
▁auditório	-11.6533
▁desvia	-11.6533
▁celso	-11.6538
▁concorrente	-11.654
▁quarteto	-11.654
▁seguia	-11.6541
▁atualização	-11.6541
nense	-11.6542
▁carter	-11.6543
▁assusta	-11.6543
▁couro	-11.6546
design	-11.6555
▁noturna	-11.6558
▁israelense	-11.6562
▁pavimento	-11.6563
hein	-11.6571
▁dueto	-11.6576
▁lake	-11.6576
poder	-11.6582
temp	-11.6584
▁cristiano	-11.6594
▁armadura	-11.6597
▁permanência	-11.6602
▁saudita	-11.6602
▁sírio	-11.6603
▁julia	-11.6608
perdi	-11.6609
▁psicológico	-11.6609
▁materna	-11.661
▁recua	-11.6611
▁comandar	-11.6614
toxic	-11.6617
▁quebrou	-11.662
mene	-11.6621
д	-11.6625
▁desaparecido	-11.6625
▁mantiveram	-11.6625
▁pároco	-11.6625
only	-11.6625
▁algodão	-11.663
▁medir	-11.6634
▁emitiu	-11.6635
▁mind	-11.6637
▁influenciada	-11.6637
clari	-11.6638
especi	-11.6641
▁criativa	-11.6645
escrito	-11.6647
▁riacho	-11.6663
izante	-11.6669
▁denota	-11.6669
▁curiosidade	-11.6671
▁fornecido	-11.6671
▁conduzido	-11.6672
▁incluíam	-11.6675
▁sintetiza	-11.6678
▁mendonça	-11.6679
▁multa	-11.6682
▁apostólica	-11.6695
▁lucrativos	-11.6695
▁ciclista	-11.6695
▁erguido	-11.6695
▁invenção	-11.6695
▁houston	-11.6695
▁gangue	-11.6695
▁passaria	-11.6697
énio	-11.6697
▁vínculo	-11.6703
▁renomado	-11.6703
▁habilita	-11.6703
▁intensifica	-11.6704
écio	-11.6709
▁telescópio	-11.6711
bacter	-11.6712
▁espírita	-11.6718
▁recuperou	-11.6718
▁marcus	-11.6724
▁giuseppe	-11.6726
▁sonoridade	-11.6726
▁1877	-11.6727
▁participante	-11.6733
▁stefan	-11.6735
▁tricolor	-11.6736
▁1848	-11.6742
▁stanley	-11.6742
▁nasceram	-11.6743
▁remoção	-11.6749
stadt	-11.675
▁prejuízo	-11.675
▁misterioso	-11.675
▁impressa	-11.675
▁aquático	-11.675
▁gerada	-11.6752
▁concorreu	-11.6757
▁precoce	-11.6758
▁variadas	-11.6759
▁electr	-11.6759
▁escondido	-11.6765
wiki	-11.6765
▁alumínio	-11.6773
▁residencial	-11.6773
▁erguida	-11.6789
▁modernização	-11.679
▁ingressar	-11.6791
uld	-11.6793
▁expandiu	-11.6797
▁heroísmo	-11.6797
▁fundaram	-11.6803
▁alegou	-11.6806
▁saco	-11.6808
▁turbo	-11.6812
litz	-11.6812
▁manchete	-11.6813
▁declarada	-11.6815
▁farmácia	-11.682
▁consideração	-11.6822
▁barry	-11.6829
▁tomé	-11.6829
bby	-11.6829
taxon	-11.683
▁plebe	-11.6832
▁cook	-11.6834
▁fino	-11.6835
▁teórica	-11.6838
▁trazia	-11.684
âneo	-11.6841
▁rituais	-11.6844
▁gruta	-11.6847
produção	-11.685
▁bush	-11.6851
▁encerrar	-11.6856
▁administrada	-11.6856
▁erva	-11.6856
▁dissolução	-11.686
▁comissário	-11.686
action	-11.6867
▁objetiva	-11.6868
▁cooperativa	-11.6869
▁ultramar	-11.6875
ruga	-11.6876
fix	-11.6876
▁fortificação	-11.6876
▁prático	-11.6878
▁cobrança	-11.6878
▁orbita	-11.6878
▁subordinado	-11.6879
▁objecto	-11.6882
▁guarnição	-11.6884
▁premiada	-11.6886
▁representava	-11.6889
▁extração	-11.6891
▁sódio	-11.6894
▁gentil	-11.6897
▁perigosa	-11.6897
▁analisar	-11.6903
▁fictícia	-11.6908
▁inscreve	-11.6908
▁morrido	-11.6908
três	-11.6908
▁mineração	-11.691
▁pilares	-11.6913
▁orgânico	-11.6916
▁namoro	-11.6917
▁detetive	-11.6917
▁turca	-11.6919
▁traição	-11.6922
▁infantis	-11.6924
▁marginal	-11.6924
▁existiu	-11.6932
▁introduzir	-11.6935
▁duelo	-11.6938
direito	-11.6938
▁lâmina	-11.694
▁sobrevive	-11.694
ótipo	-11.694
witt	-11.6954
▁diretório	-11.6956
▁senadores	-11.6958
▁abandono	-11.6962
vora	-11.6963
▁bíblico	-11.6964
▁ajudá	-11.6964
▁meridional	-11.6972
▁complicações	-11.6972
▁celeste	-11.6974
tian	-11.6974
militar	-11.6977
▁catalunha	-11.698
▁experiente	-11.698
▁paulistano	-11.6982
▁aposentado	-11.6983
▁test	-11.6984
▁astronomia	-11.6988
▁bosque	-11.6992
▁bruxelas	-11.6996
▁patrulha	-11.6996
coronel	-11.6998
activ	-11.6998
▁acontecimento	-11.7002
▁européia	-11.7004
▁vigilância	-11.7004
cloro	-11.7009
▁navais	-11.7009
▁android	-11.7011
▁espécime	-11.7012
▁incomum	-11.702
ínia	-11.7024
hyun	-11.7026
▁calvin	-11.7027
ε	-11.7028
▁autónoma	-11.7028
▁garantindo	-11.7028
▁elaborada	-11.7028
▁montenegro	-11.7029
enstein	-11.7031
cione	-11.7032
▁adiante	-11.7039
▁pisa	-11.7042
drag	-11.7042
▁grace	-11.7044
▁classic	-11.7045
▁1868	-11.7047
▁suprimento	-11.706
▁couto	-11.7064
wang	-11.7069
▁coeficiente	-11.7069
▁eclesiástico	-11.7069
▁bron	-11.707
▁kirk	-11.7075
▁sínodo	-11.7077
▁azuis	-11.7078
▁1867	-11.7078
▁fighter	-11.7078
▁berlin	-11.7079
▁exibir	-11.7079
▁concha	-11.708
▁ingrediente	-11.7085
▁madalena	-11.7085
▁lincoln	-11.7093
▁metodologia	-11.7093
▁padroeiro	-11.7093
▁petersburgo	-11.7093
▁tradutor	-11.7093
estrela	-11.7094
então	-11.7096
▁encerrando	-11.7097
▁favela	-11.7102
▁redonda	-11.7102
▁silver	-11.7103
▁impede	-11.7103
▁gravaram	-11.7107
transi	-11.7108
▁1840	-11.7109
pokémon	-11.7109
▁aconselha	-11.7109
presente	-11.7111
▁freqüentemente	-11.7112
▁resistir	-11.7118
▁sustentável	-11.7125
▁troço	-11.7128
▁noturno	-11.7128
▁idêntico	-11.7134
tuoso	-11.7138
▁povoamento	-11.7139
▁abóbada	-11.715
benz	-11.7151
▁assistido	-11.7151
▁celebrado	-11.7152
▁vendedor	-11.7153
▁haiti	-11.7153
▁frontal	-11.7154
▁divulgou	-11.7158
▁sucessivamente	-11.7158
▁decisivo	-11.7158
▁sólida	-11.7159
▁crescendo	-11.7165
▁benefício	-11.7168
▁cafe	-11.7173
▁hesse	-11.7174
▁santarém	-11.7174
▁preserva	-11.7175
remake	-11.7175
▁ocupava	-11.7176
▁corredores	-11.7177
▁avisa	-11.7178
uíno	-11.7182
▁oferecida	-11.7183
▁austin	-11.7184
▁irmandade	-11.7191
diretor	-11.7194
▁proporcional	-11.72
▁transferir	-11.7201
▁especialização	-11.7204
heat	-11.7204
▁abundância	-11.7207
▁escocês	-11.7207
impact	-11.7208
▁1873	-11.7215
▁transit	-11.7217
▁tirou	-11.722
→	-11.7224
região	-11.7224
▁sofreram	-11.7227
▁herdou	-11.7228
▁rodoviário	-11.7232
▁franklin	-11.7232
▁detentor	-11.7237
▁definiu	-11.7237
▁perry	-11.724
▁cachorro	-11.724
▁iguaçu	-11.724
▁obtém	-11.724
guitarra	-11.7241
graphic	-11.7241
▁pintores	-11.7243
preendida	-11.7248
▁ancestral	-11.7248
▁obedece	-11.7248
▁lunar	-11.7249
▁delgada	-11.725
▁fracassa	-11.7251
▁egípcia	-11.7257
▁advento	-11.7257
▁10%	-11.7257
▁editores	-11.726
▁disparo	-11.7262
▁queijo	-11.7262
▁dificulta	-11.7265
▁lawrence	-11.7265
fight	-11.7266
▁desfila	-11.7273
▁galego	-11.7273
▁1879	-11.7274
mdb	-11.7276
frame	-11.7277
▁contida	-11.7281
▁preservado	-11.7281
▁interrompida	-11.7281
▁1874	-11.7282
▁aproveitando	-11.7284
▁assinala	-11.7285
▁cabine	-11.7287
▁saíram	-11.7295
▁estêvão	-11.7298
▁polónia	-11.7299
50.000	-11.7299
tici	-11.7299
▁apaga	-11.7302
▁suspenso	-11.7306
▁andamento	-11.7307
▁afetado	-11.7307
▁cumprimento	-11.7315
▁cândido	-11.7315
▁caminhada	-11.7317
▁chute	-11.7318
▁batata	-11.7319
▁fechamento	-11.7321
▁lamb	-11.7321
▁véspera	-11.7323
▁contribuir	-11.7324
▁estudantil	-11.7331
▁coragem	-11.7331
poupa	-11.7333
▁refrão	-11.7335
mouth	-11.7337
▁apelidado	-11.7339
▁arqueológica	-11.7339
▁interferência	-11.7339
▁virgínia	-11.7339
▁supervisão	-11.7339
▁droga	-11.7344
▁falava	-11.7347
▁essência	-11.735
▁patrício	-11.7364
▁ótima	-11.7364
▁logística	-11.7365
▁tambor	-11.7365
▁100%	-11.7366
berger	-11.7366
▁filtro	-11.7369
▁solene	-11.7374
▁movie	-11.7375
▁lorenzo	-11.7381
ptb	-11.7384
▁miner	-11.7388
▁conhecia	-11.739
▁vigia	-11.739
▁cratera	-11.739
▁modificada	-11.7392
▁esgoto	-11.7392
▁quint	-11.7395
▁macho	-11.7397
▁receptores	-11.74
▁2020	-11.7405
▁proibição	-11.7406
▁magistrado	-11.7407
▁lyon	-11.7416
chev	-11.7416
▁stalin	-11.7418
▁justo	-11.7422
▁relevância	-11.7423
▁graham	-11.7423
▁irlandesa	-11.7431
▁figueira	-11.7435
▁suposta	-11.7437
▁consórcio	-11.744
▁isolamento	-11.744
▁comediante	-11.744
▁adesão	-11.7446
▁progressista	-11.7448
▁criticou	-11.7449
▁refugia	-11.7449
1.0	-11.7451
▁irene	-11.7454
▁dominado	-11.7456
▁márcio	-11.7457
▁arqueólogo	-11.7457
▁lenta	-11.746
▁essenciais	-11.7465
▁1872	-11.7466
▁colecção	-11.7467
▁orbital	-11.7472
▁tribunais	-11.7482
adventure	-11.7487
▁moradia	-11.749
▁dignidade	-11.749
▁vanguarda	-11.749
▁aparecimento	-11.749
▁sebastian	-11.7491
▁tropa	-11.7498
▁bombeiros	-11.7499
▁limpeza	-11.7499
▁cronista	-11.7502
▁colorido	-11.7502
▁negou	-11.7504
▁shell	-11.7505
▁atrasa	-11.7507
▁lixo	-11.7509
▁distinta	-11.7509
▁parker	-11.7512
▁trilogia	-11.7515
▁filosófico	-11.7516
▁rotina	-11.7516
▁temporal	-11.7516
▁great	-11.7516
▁infecta	-11.7517
▁sinônimo	-11.7517
▁fraude	-11.7518
▁narrador	-11.7519
eirinha	-11.7521
_8	-11.753
м	-11.7533
▁pernambucano	-11.7533
▁renomeado	-11.7541
fact	-11.7542
▁mhz	-11.755
▁partindo	-11.7552
▁prisioneiro	-11.7553
▁escuta	-11.7557
▁interliga	-11.7558
▁expulsão	-11.7558
▁inquérito	-11.7558
▁carinho	-11.7559
pessoa	-11.7562
▁governar	-11.7564
html	-11.7566
▁divergência	-11.7567
▁secretária	-11.7567
▁kw	-11.757
▁querer	-11.7572
▁islã	-11.7572
▁ultimate	-11.7574
▁dezessete	-11.7575
▁illinois	-11.7575
▁imortal	-11.7575
▁antropologia	-11.7576
▁sequencia	-11.7587
▁terminaram	-11.7587
boom	-11.7588
▁encaminha	-11.7592
▁monumental	-11.7593
▁dedicação	-11.7596
▁pódio	-11.7597
▁garden	-11.7597
▁resolvido	-11.7601
▁crônicas	-11.7606
▁usualmente	-11.7606
▁reflexão	-11.7609
▁depoimento	-11.761
instrument	-11.7617
▁acrescentou	-11.7618
▁folclore	-11.7618
▁maratona	-11.7618
▁imensa	-11.7618
▁ermida	-11.7618
▁bruto	-11.7619
▁funcionou	-11.7619
▁introduz	-11.762
▁hél	-11.7625
▁esquina	-11.7625
▁traduzida	-11.7625
▁fidalgo	-11.7627
▁acessível	-11.7627
▁subdivid	-11.7627
independent	-11.7632
▁estímulo	-11.7635
▁nigéria	-11.7635
▁inimiga	-11.7635
▁murphy	-11.7636
▁restaurar	-11.7637
▁movido	-11.764
period	-11.764
▁vitorioso	-11.7644
▁sindical	-11.7644
▁medeiros	-11.7644
▁viseu	-11.7648
italia	-11.7649
▁desenvolvedores	-11.765
reggae	-11.7652
▁brothers	-11.7652
first	-11.7654
▁anéis	-11.7655
▁séria	-11.7655
▁decorada	-11.766
▁borboleta	-11.7661
▁granito	-11.7666
reti	-11.7666
conhecido	-11.7667
ère	-11.7669
▁londrina	-11.7669
▁terremoto	-11.7669
morfismo	-11.7669
▁raven	-11.7671
▁aborto	-11.7673
▁ibm	-11.7674
▁desejava	-11.7678
técnico	-11.7679
▁continuava	-11.7679
▁cometido	-11.768
▁cego	-11.768
▁pescadores	-11.7684
▁agrava	-11.7684
▁apostólico	-11.7687
▁teatrais	-11.7687
▁lendário	-11.7687
ciclo	-11.7687
▁ramal	-11.7689
▁refúgio	-11.7695
▁foundation	-11.7704
▁tensões	-11.7704
▁ordenação	-11.7707
▁absorção	-11.7713
▁mercedes	-11.7713
▁herbert	-11.7714
▁renasce	-11.7715
▁roth	-11.7718
▁emitida	-11.7719
▁caracter	-11.772
▁haveria	-11.7725
▁leandro	-11.7726
catalog	-11.7727
empurra	-11.773
▁médici	-11.773
▁ecossistema	-11.773
▁separou	-11.773
▁expedições	-11.7731
enburg	-11.7731
wich	-11.7737
▁diferencial	-11.7738
▁notoriedade	-11.7739
▁conspira	-11.7741
alpin	-11.7743
▁silvio	-11.7748
▁reflexo	-11.7749
▁baptista	-11.7756
▁crânio	-11.7756
▁supervisiona	-11.7756
▁1865	-11.7764
▁afetada	-11.7764
▁cobrir	-11.7766
▁oculta	-11.7771
▁radicais	-11.7773
▁caçadores	-11.7774
▁rené	-11.7777
▁agrupamento	-11.7778
▁cortada	-11.7779
▁feijão	-11.7782
▁jersey	-11.7782
▁manhattan	-11.7791
▁ucraniano	-11.7791
▁elementar	-11.7791
▁draft	-11.7791
▁saxe	-11.7796
▁jennifer	-11.7799
λ	-11.7808
▁peixoto	-11.7808
▁simão	-11.7811
▁bancada	-11.7812
▁beija	-11.7814
▁lenin	-11.7816
▁ingressa	-11.7816
▁canhões	-11.7817
▁eliminada	-11.7818
▁mutante	-11.7818
clássico	-11.782
▁bobby	-11.7822
▁líbano	-11.7825
▁despesas	-11.7826
▁1861	-11.7834
▁itape	-11.7834
▁michigan	-11.7834
▁tennessee	-11.7834
▁mostrava	-11.7839
élico	-11.784
2000	-11.7841
▁reportagem	-11.7843
▁humberto	-11.7844
▁perfura	-11.7844
▁1859	-11.7844
▁milícia	-11.7851
▁estacionamento	-11.7852
▁aprisiona	-11.7852
john	-11.7859
▁desistiu	-11.7861
▁setenta	-11.7861
▁basquetebol	-11.7862
▁carey	-11.7862
▁terminais	-11.7866
▁thiago	-11.7869
▁jogabilidade	-11.787
▁edmund	-11.7873
▁investir	-11.7876
▁auditor	-11.7877
▁ortodoxo	-11.7878
▁embarcação	-11.7884
1.1	-11.7886
▁shakespeare	-11.7887
▁humilde	-11.7887
folha	-11.7889
▁feriado	-11.7889
acr	-11.789
▁portaria	-11.7891
▁predomina	-11.7891
▁recita	-11.7895
▁arrecadou	-11.7896
▁hemisfério	-11.7896
▁aguiar	-11.7897
▁brandão	-11.7898
▁remete	-11.7901
▁kent	-11.7903
▁again	-11.7905
▁aprendiz	-11.7907
▁atribuição	-11.7914
▁1830	-11.7916
▁pimenta	-11.7917
▁válvula	-11.7922
▁cícero	-11.7922
▁encaixa	-11.7922
▁circu	-11.7928
▁traduções	-11.7931
▁ruído	-11.7936
▁preocupado	-11.7937
▁selecionada	-11.794
▁temporária	-11.7941
▁bryan	-11.795
cílio	-11.7954
▁martín	-11.7958
▁ohio	-11.7958
▁farol	-11.7961
▁carmen	-11.7963
▁(2006)	-11.7966
▁juro	-11.7968
figura	-11.7969
flutua	-11.7972
▁condução	-11.7973
▁sofria	-11.7976
▁larry	-11.7977
▁batismo	-11.798
▁elegante	-11.798
▁teólogo	-11.798
▁recorda	-11.798
amarra	-11.798
▁calcular	-11.7982
▁interpretações	-11.7984
▁tripulantes	-11.7984
▁videogame	-11.7985
▁veste	-11.7985
▁1869	-11.7985
intitula	-11.7986
juri	-11.7986
▁infinito	-11.7993
▁brincadeira	-11.7993
angi	-11.7997
▁previa	-11.8
▁latin	-11.8001
ï	-11.8002
▁camponeses	-11.8002
▁disfarça	-11.8002
▁abelha	-11.8003
▁obrigatório	-11.8005
▁cartoon	-11.8011
abba	-11.8011
anth	-11.8012
social	-11.8015
▁excessiva	-11.802
▁televisivo	-11.802
▁preenche	-11.802
irmã	-11.8024
▁interino	-11.8024
▁grita	-11.8027
▁dramaturgo	-11.8028
▁jamaica	-11.8029
▁demolido	-11.8029
▁theodor	-11.8031
argent	-11.8032
▁vacina	-11.8032
▁tentava	-11.8036
▁órfã	-11.8037
miya	-11.8038
▁celulares	-11.8044
grid	-11.8053
▁cancelada	-11.8055
▁hotéis	-11.8056
▁falcão	-11.8057
▁declarações	-11.8058
zinha	-11.8065
▁quantia	-11.8067
phon	-11.8071
▁quântica	-11.8073
▁dramático	-11.8074
▁neutro	-11.8074
▁serpente	-11.8076
▁infanto	-11.8082
▁imperiais	-11.8083
▁caçador	-11.8083
▁selva	-11.8085
▁fornecimento	-11.8091
soprano	-11.8091
▁piedade	-11.8092
assu	-11.8094
▁outorga	-11.8095
▁barbara	-11.8097
▁challenge	-11.81
▁marrom	-11.8101
▁medievais	-11.8109
▁campbell	-11.8109
▁tenho	-11.811
ésimo	-11.8111
▁defensiva	-11.8118
▁reuniram	-11.8119
speed	-11.8127
activa	-11.8132
▁1834	-11.8134
▁banana	-11.8134
▁spencer	-11.8136
▁adquire	-11.8136
▁luigi	-11.8137
every	-11.814
room	-11.8143
▁celta	-11.8143
ridge	-11.8144
▁panamá	-11.8145
▁subida	-11.815
▁espinho	-11.815
▁estocolmo	-11.8154
▁extraordinário	-11.8154
crónica	-11.8155
▁audição	-11.8158
museu	-11.8161
▁gerador	-11.8163
▁rodolfo	-11.8163
▁adicionada	-11.8164
▁gordura	-11.8165
▁retangular	-11.8172
▁generais	-11.8176
▁cerrado	-11.8176
▁salgado	-11.818
▁eurovisão	-11.8181
▁diagrama	-11.8181
▁líbia	-11.8182
▁kre	-11.8186
▁migração	-11.8188
▁exemplar	-11.819
▁autônoma	-11.819
▁productions	-11.819
▁kurt	-11.8195
▁inês	-11.8195
▁funchal	-11.8199
▁research	-11.8199
▁neil	-11.8202
senhor	-11.8203
haus	-11.8204
▁certificação	-11.8208
ī	-11.8208
▁protagonizou	-11.8208
▁exigir	-11.8209
tóxico	-11.8218
▁rubens	-11.8218
▁ilustrações	-11.822
▁assinaram	-11.8224
fernand	-11.8224
▁hunt	-11.8224
▁companheira	-11.8227
▁1863	-11.8227
além	-11.8234
▁(2005)	-11.8236
foot	-11.8238
▁graduado	-11.824
▁reservatório	-11.8241
π	-11.8245
▁holandeses	-11.8245
▁benedito	-11.8245
▁júlia	-11.8245
▁trauma	-11.8246
óloga	-11.8249
▁inserida	-11.8254
▁croácia	-11.8255
3,5	-11.8259
▁diocesano	-11.8263
▁interrompido	-11.8263
▁referindo	-11.8263
▁agricultores	-11.8267
êncio	-11.8267
▁polonesa	-11.8272
▁frankfurt	-11.8272
▁infinita	-11.8272
▁medição	-11.8272
▁inocente	-11.8273
▁vogal	-11.8274
▁desculpa	-11.8282
▁saboia	-11.8282
tivista	-11.8282
▁preservada	-11.8286
▁originária	-11.829
▁argélia	-11.83
▁livraria	-11.8302
▁lorena	-11.8304
▁prévia	-11.8306
▁clérigo	-11.8309
▁atraído	-11.8309
▁bowl	-11.8309
▁rachel	-11.8311
▁machine	-11.8313
▁silêncio	-11.8318
▁envenen	-11.8318
▁imóveis	-11.8327
▁arqueologia	-11.8327
▁artesanato	-11.8327
▁lealdade	-11.8328
▁telefonia	-11.8336
▁ditador	-11.8342
▁adelaide	-11.8346
▁detalhada	-11.8346
http	-11.8353
▁dinossauro	-11.8355
▁invadiu	-11.8355
▁comunitário	-11.8355
▁visíveis	-11.8356
witz	-11.8357
▁1866	-11.8357
▁politicamente	-11.8357
associação	-11.8358
▁antologia	-11.8358
▁descobriram	-11.8362
▁destruiu	-11.8364
▁champ	-11.8371
▁judiciário	-11.8373
▁pacheco	-11.8373
zhou	-11.8374
▁facção	-11.8374
▁ouvinte	-11.8378
▁lecionou	-11.838
▁mergulha	-11.8382
▁terrível	-11.8383
tung	-11.8384
▁herdeira	-11.8387
▁roche	-11.8388
▁celebridades	-11.8389
▁bombardeio	-11.8392
▁espessura	-11.8392
▁errado	-11.8397
metralhadora	-11.8401
▁astrônomo	-11.8401
▁clínico	-11.8401
▁publicitário	-11.8401
▁petrópolis	-11.8401
▁hidrográfica	-11.8402
▁farinha	-11.8405
ólito	-11.8408
▁idêntica	-11.841
▁denominações	-11.8411
▁ostenta	-11.8414
▁progressivo	-11.8419
música	-11.8419
▁ultima	-11.842
▁criativo	-11.8423
▁corrêa	-11.8429
▁mísseis	-11.8429
▁prefixo	-11.8429
américa	-11.8429
▁alusão	-11.843
arranca	-11.8431
▁faraó	-11.8432
▁efectua	-11.8438
pagã	-11.8438
▁parecida	-11.8438
▁imposta	-11.8443
genera	-11.8452
▁pausa	-11.8454
columb	-11.8455
▁obtiveram	-11.8457
▁fresco	-11.8457
▁aveiro	-11.8459
▁gamb	-11.8459
▁queiroz	-11.846
▁corporal	-11.846
ídeo	-11.8461
▁úmido	-11.8466
castanha	-11.8467
adult	-11.8467
▁service	-11.8471
primeira	-11.8475
▁subespécie	-11.8475
▁lúcia	-11.8476
▁numero	-11.848
▁ciclismo	-11.8485
▁engana	-11.8486
▁intenções	-11.8487
▁gália	-11.8493
▁bíblica	-11.8494
▁eletricidade	-11.8494
▁dilma	-11.8495
▁flauta	-11.8496
î	-11.8503
▁póvoa	-11.8503
▁colorida	-11.8507
▁walker	-11.8507
3.000	-11.8512
▁júpiter	-11.8513
▁boneco	-11.8514
▁catolicismo	-11.8522
▁influenciou	-11.8522
▁chipre	-11.8529
▁istambul	-11.8531
sweet	-11.8532
▁úteis	-11.8541
▁edificação	-11.8552
▁inaugural	-11.8553
▁kiss	-11.8553
▁evans	-11.8554
▁misto	-11.8555
▁genético	-11.8555
▁turner	-11.8556
▁renovou	-11.856
▁quatorze	-11.8569
▁restrito	-11.8569
▁botânica	-11.8569
▁reconcilia	-11.8569
▁aguda	-11.8571
▁warren	-11.8573
▁jardas	-11.8573
▁protesta	-11.8578
▁advocacia	-11.8578
▁macedônia	-11.8578
▁vinculado	-11.8578
▁explorador	-11.858
▁aprendizado	-11.8583
▁invasores	-11.8585
jú	-11.8586
▁empreendedor	-11.8588
▁pensilvânia	-11.8588
▁square	-11.8588
▁ótimo	-11.8588
▁cláusula	-11.8597
▁rodoviária	-11.8597
▁denominar	-11.86
▁jonas	-11.8602
▁inventor	-11.8607
▁solidariedade	-11.8616
▁dispersa	-11.8616
▁1862	-11.8616
}	-11.8626
▁kepler	-11.8626
▁champion	-11.8626
▁prevê	-11.8631
▁pássaros	-11.8635
▁batizada	-11.8637
▁tribuno	-11.8637
▁selvagens	-11.8645
ásio	-11.8651
▁instrutor	-11.8652
▁choca	-11.8654
liquid	-11.8654
▁1857	-11.8655
▁eterna	-11.8658
▁1836	-11.8662
▁thompson	-11.8663
▁sevilha	-11.8664
jardin	-11.8665
smith	-11.8671
clip	-11.8673
▁retomou	-11.8673
▁pompeu	-11.8673
▁bienal	-11.8673
tarzan	-11.8679
▁cadáver	-11.8682
▁alcunha	-11.8683
▁detroit	-11.8683
▁desconfia	-11.8685
▁subordina	-11.8688
▁transformações	-11.8688
▁carlota	-11.869
▁varsóvia	-11.8692
▁invasões	-11.8692
▁ruptura	-11.8692
ghost	-11.8693
▁escadaria	-11.8693
portugal	-11.8693
▁léo	-11.8696
▁talha	-11.8697
▁dinamarquês	-11.8711
▁rígido	-11.8711
▁nitr	-11.8713
▁moreno	-11.8716
▁calçada	-11.8721
▁cardinal	-11.8722
▁robinson	-11.8723
diácono	-11.873
▁puderam	-11.873
▁logotipo	-11.8733
▁desistir	-11.8737
▁armênio	-11.874
▁alentejo	-11.874
▁phillip	-11.874
▁perfeitamente	-11.8742
identi	-11.8742
_9	-11.8745
▁roland	-11.8746
▁desempate	-11.8749
▁alonso	-11.875
vermelho	-11.875
▁mobilidade	-11.8751
▁kru	-11.8753
▁fígado	-11.8759
▁budismo	-11.8759
celular	-11.8762
▁adaptações	-11.8762
▁apropriado	-11.8763
▁ringue	-11.8763
▁gill	-11.8765
storm	-11.8765
▁artist	-11.8768
▁legítimo	-11.8769
▁convenções	-11.8769
▁aurélio	-11.8769
▁dançarino	-11.8771
▁chocolate	-11.8778
▁(2004)	-11.8778
▁sobrevivente	-11.8779
▁inconsciente	-11.8786
▁garcía	-11.8788
▁alça	-11.8791
▁percussão	-11.8797
▁deteriora	-11.8798
scópio	-11.8798
▁emoções	-11.8806
ß	-11.8807
▁venceram	-11.8808
escrita	-11.881
ócitos	-11.8816
▁nomenclatura	-11.8817
▁minor	-11.8822
▁achou	-11.8823
▁paródia	-11.8826
▁mosaico	-11.8826
▁brazil	-11.8827
▁proclamação	-11.8829
▁canhão	-11.8831
▁comunicar	-11.8834
▁sepultura	-11.8836
▁nuvens	-11.8836
▁locutor	-11.8836
▁vigente	-11.8837
▁opositor	-11.8838
▁intermédio	-11.8838
▁tejo	-11.8839
▁aluga	-11.8845
▁armamento	-11.8845
▁construíram	-11.8846
▁castelhano	-11.8846
▁nikola	-11.8846
▁imuno	-11.8855
▁confundido	-11.8855
▁boeing	-11.8855
▁vivido	-11.8856
▁visualizações	-11.8856
▁party	-11.8858
▁radar	-11.8858
enterprise	-11.8865
▁sílaba	-11.8865
▁comunhão	-11.8865
▁lacerda	-11.8865
▁guru	-11.8873
▁triangular	-11.8875
▁eficácia	-11.8875
▁qualificado	-11.8884
▁controversa	-11.8884
asiática	-11.8896
plast	-11.8901
▁aparecida	-11.8904
▁entorno	-11.8904
horizon	-11.8912
▁etiópia	-11.8914
▁metálica	-11.8914
▁playoffs	-11.8914
▁interroga	-11.8914
▁decreta	-11.8915
▁croata	-11.8916
▁cotidiano	-11.8923
▁procissão	-11.8923
▁extraordinária	-11.8933
▁1855	-11.8933
▁oitenta	-11.8933
▁restaurada	-11.8939
▁grossa	-11.8939
▁coincide	-11.8943
▁provedor	-11.8944
▁snow	-11.8946
▁incrível	-11.8953
entendido	-11.8963
▁suspend	-11.8966
▁intercâmbio	-11.8972
▁1852	-11.8974
▁80%	-11.8977
▁tijuca	-11.8982
▁vingar	-11.8982
▁comercialização	-11.8986
▁haste	-11.899
▁metálico	-11.8992
▁tópico	-11.8992
monster	-11.8992
▁alberga	-11.8994
▁austríaca	-11.9002
▁contribuíram	-11.9002
▁maciço	-11.9002
▁vulcão	-11.9002
▁transmite	-11.9002
▁cristais	-11.9003
▁automática	-11.9007
▁excede	-11.9009
▁provou	-11.9009
brasileiro	-11.901
▁habsburgo	-11.9012
▁travessia	-11.9012
▁aparenta	-11.9012
▁store	-11.9021
▁cordilheira	-11.9021
deutsche	-11.9025
_10	-11.9027
▁duplica	-11.9027
▁padroeira	-11.9031
smackdown	-11.9031
▁prosseguir	-11.9031
▁educacionais	-11.9031
▁aceleração	-11.9032
▁fernão	-11.9035
▁académico	-11.9041
▁soyuz	-11.9041
▁textura	-11.9042
cionismo	-11.9042
▁pietro	-11.9042
anfitriã	-11.9051
▁disposta	-11.9058
▁veloso	-11.9062
álico	-11.9066
у	-11.9071
▁orelha	-11.9072
transport	-11.9078
▁sobreviveram	-11.908
▁sentia	-11.9081
▁escravidão	-11.9081
▁recria	-11.9083
▁patrocinador	-11.9085
sucedido	-11.9087
▁intriga	-11.9091
▁queixa	-11.9093
▁desembarca	-11.91
▁reabilitação	-11.91
bombardeiro	-11.9101
▁ginasta	-11.9101
flame	-11.9108
▁tabuleiro	-11.911
▁concreta	-11.911
mobile	-11.9121
▁ferimentos	-11.9131
▁suspensa	-11.9132
▁barata	-11.9132
daily	-11.9137
▁distrital	-11.914
▁poluição	-11.914
▁solicitou	-11.915
▁sugerido	-11.915
▁comunitária	-11.915
▁unificação	-11.9152
question	-11.916
▁conduzida	-11.916
▁fizesse	-11.916
present	-11.9162
▁reduto	-11.9168
▁visões	-11.9175
electric	-11.9175
▁ludwig	-11.918
▁renascentista	-11.918
▁esquadra	-11.918
▁arnold	-11.918
▁(2003)	-11.918
piazza	-11.9181
▁preocupações	-11.919
▁lópez	-11.919
▁netflix	-11.919
▁acidentalmente	-11.919
▁intimamente	-11.919
▁reconstruída	-11.919
▁sensível	-11.919
▁diesel	-11.9191
▁salazar	-11.9194
imperador	-11.9197
▁alcântara	-11.92
▁álvares	-11.92
▁provém	-11.92
▁bastos	-11.9204
▁iugoslávia	-11.921
▁gasolina	-11.921
▁curador	-11.9211
▁tommy	-11.9217
▁distinto	-11.9218
pomp	-11.9224
▁convive	-11.9224
▁filmagem	-11.9225
▁mortalidade	-11.9225
ò	-11.923
▁fortificações	-11.923
▁várzea	-11.923
▁sujeita	-11.923
▁maurice	-11.923
▁(2007)	-11.923
▁elefante	-11.9245
cefal	-11.9246
▁enfim	-11.9249
▁pôr	-11.9249
▁seqüência	-11.925
▁flui	-11.9253
presbítero	-11.9261
▁montanhosa	-11.9261
▁(2009)	-11.9261
▁étnica	-11.9261
ádio	-11.9261
ómica	-11.9268
▁investido	-11.9269
▁want	-11.9271
▁vizinhança	-11.9273
▁eventual	-11.9273
▁cunho	-11.9277
ívoro	-11.9279
administr	-11.9281
▁aníbal	-11.9281
▁obrigou	-11.9281
▁japan	-11.9284
▁repetir	-11.9284
▁metrópole	-11.9291
▁cultivada	-11.9291
▁milímetros	-11.9291
▁1835	-11.9295
▁(2008)	-11.9301
▁vulgar	-11.9302
energ	-11.931
▁cativeiro	-11.9311
▁fidelidade	-11.9311
▁vinil	-11.9315
▁borgonha	-11.9321
▁reorganização	-11.9331
▁espirituais	-11.9331
▁nazaré	-11.9332
▁sábio	-11.9333
▁brutal	-11.9338
▁brasileirão	-11.9341
▁filiou	-11.9344
caminho	-11.9346
▁ouviu	-11.9353
▁ecológico	-11.9357
▁raj	-11.9358
€	-11.9362
▁agropecuária	-11.9362
▁polegadas	-11.9362
▁intervenções	-11.9362
▁restrita	-11.9362
▁residir	-11.9362
▁vitamina	-11.9362
▁consequente	-11.9367
▁consulado	-11.9372
▁bastidores	-11.9372
▁regenera	-11.9373
▁decadência	-11.9373
▁baleia	-11.9375
▁virgin	-11.9375
▁rpg	-11.9381
▁armadilha	-11.9382
▁conexões	-11.9382
▁goulart	-11.9382
where	-11.9383
▁gasta	-11.9388
partidária	-11.9393
▁oriunda	-11.9393
áceo	-11.9394
▁finito	-11.9399
▁corporação	-11.94
▁aproveitamento	-11.9401
▁espalhou	-11.9403
▁marshall	-11.9403
▁preconceito	-11.9403
▁proprietária	-11.9403
▁subterrâneo	-11.9403
▁dirigindo	-11.9403
▁filmada	-11.9413
▁explosivo	-11.9413
▁óscar	-11.9414
samurai	-11.9414
▁beijo	-11.9417
▁apollo	-11.9417
▁violet	-11.942
▁dissolve	-11.942
▁vulcânica	-11.9423
▁arizona	-11.9423
▁assumido	-11.9424
▁virginia	-11.9424
▁stuart	-11.9425
hausen	-11.9432
▁turim	-11.9433
▁enterrada	-11.9434
▁deputada	-11.9434
▁surgido	-11.9435
▁revitaliz	-11.9435
▁substituí	-11.9439
▁navarra	-11.9445
▁compilado	-11.9451
change	-11.9458
▁desembargador	-11.9464
▁sugestão	-11.9464
▁(2001)	-11.9464
▁erupção	-11.9465
▁cometer	-11.9466
prêmio	-11.9468
▁culminou	-11.9475
▁ângelo	-11.9475
▁atendida	-11.9475
▁marxista	-11.9476
▁forçou	-11.9478
▁interações	-11.9482
▁elogiado	-11.9484
▁singapura	-11.9485
▁pulmonar	-11.9485
▁bilhete	-11.9488
▁valência	-11.9489
▁julio	-11.9494
▁convencionais	-11.9495
▁substantivo	-11.9495
▁castanho	-11.9495
▁(2010)	-11.9495
icultura	-11.9496
1.2	-11.9497
▁lembrança	-11.9499
sincron	-11.9503
·	-11.9506
▁currículo	-11.9516
▁coreografia	-11.9516
▁fisicamente	-11.9516
▁vilões	-11.9518
yuki	-11.952
discovery	-11.9527
basti	-11.9536
▁classificando	-11.9536
▁cornélio	-11.9537
▁cálcio	-11.9537
▁intercepta	-11.9537
▁governado	-11.9539
aprendi	-11.954
constant	-11.9546
▁autônomo	-11.9547
▁seattle	-11.9548
▁litros	-11.9548
segunda	-11.9554
▁earth	-11.9555
▁lituânia	-11.9557
▁quadrangular	-11.9557
▁artefatos	-11.9557
▁afastou	-11.9558
▁elaborar	-11.9561
▁psicológica	-11.9565
▁cápsula	-11.9568
▁dublagem	-11.9568
▁inovações	-11.9568
▁rhode	-11.9568
market	-11.9574
▁infiltra	-11.9578
▁mantêm	-11.9578
▁reestruturação	-11.9578
▁distancia	-11.9578
▁nuvem	-11.9578
▁malásia	-11.958
▁analista	-11.958
▁vencida	-11.9581
▁removida	-11.9584
▁steel	-11.9591
▁concilia	-11.9595
{	-11.9599
▁borracha	-11.9599
▁raiva	-11.9605
▁nominal	-11.961
▁chelsea	-11.962
▁parceira	-11.962
▁claudia	-11.962
eirense	-11.9626
▁calculado	-11.9631
▁atingida	-11.9631
▁visibilidade	-11.9631
▁impor	-11.9636
▁renomeada	-11.9639
▁proporções	-11.9641
▁watson	-11.9641
▁lanterna	-11.9641
▁sabedoria	-11.9641
▁tutela	-11.9642
▁aceite	-11.9643
▁antropo	-11.9644
▁amélia	-11.9644
ل	-11.9651
▁prevenir	-11.9651
▁antepassado	-11.9662
azul	-11.9665
▁dennis	-11.9668
4,5	-11.9671
▁chagas	-11.9673
considera	-11.9674
▁epidemia	-11.9683
▁homicídio	-11.9683
▁mercúrio	-11.9683
▁setúbal	-11.9683
eleitor	-11.9684
▁investidores	-11.9687
produtor	-11.9688
▁licenciou	-11.9693
▁demolida	-11.9693
▁colheita	-11.9693
▁nicole	-11.9693
▁contabilidade	-11.9703
▁dançarina	-11.9707
▁exercido	-11.9714
▁integridade	-11.9714
▁curiosamente	-11.9714
corrupt	-11.9715
▁keith	-11.9716
▁bonaparte	-11.9725
▁instituído	-11.9725
▁mergulho	-11.9725
▁confessa	-11.9725
▁atributos	-11.9725
▁resenha	-11.9726
▁revestimento	-11.9736
▁rebotes	-11.9736
▁guarn	-11.9742
tolera	-11.9744
▁urbanização	-11.9747
▁operária	-11.9748
▁90%	-11.9752
▁flandres	-11.9757
▁antunes	-11.9767
▁humilha	-11.9768
▁obrigatória	-11.977
conselho	-11.9773
_11	-11.9775
▁superficial	-11.9778
▁reportagens	-11.9789
▁escrava	-11.9789
▁moderada	-11.9789
▁compatriota	-11.9789
▁premissa	-11.9789
ícola	-11.9792
▁aposentar	-11.9799
árquica	-11.9799
▁reduzindo	-11.98
▁cameron	-11.9801
▁ivete	-11.9806
watch	-11.9808
ology	-11.9809
▁reunindo	-11.981
▁quiser	-11.9811
▁vítor	-11.9811
▁gustav	-11.9813
▁ancestrais	-11.9821
▁guerrilha	-11.9821
▁darwin	-11.9824
ígio	-11.983
▁glândula	-11.9831
evolution	-11.9831
▁binário	-11.9832
▁polaco	-11.9832
▁geologia	-11.9839
▁feixe	-11.9843
▁floresce	-11.9847
▁agrária	-11.9853
▁sênior	-11.9853
▁revoga	-11.9857
▁vocação	-11.9858
▁emily	-11.9862
▁admite	-11.9864
▁inspetor	-11.9864
▁heroína	-11.9864
▁salienta	-11.9865
▁ajuste	-11.987
▁azerbaijão	-11.9874
▁patrícia	-11.9874
▁airlines	-11.9874
▁sugerir	-11.9874
▁desenhista	-11.9885
▁obstante	-11.9885
▁heinrich	-11.9885
▁murray	-11.9886
patriot	-11.989
▁vilarejo	-11.9896
▁exigiu	-11.9896
▁frades	-11.9897
▁ponti	-11.9898
eliminatória	-11.99
▁evoluiu	-11.9906
▁salomão	-11.9906
▁(2002)	-11.9906
▁minimiza	-11.9911
▁pensou	-11.9911
0,5	-11.9914
▁fundamenta	-11.9916
principalmente	-11.992
▁certifica	-11.9921
▁aaron	-11.9923
▁desembarque	-11.9928
▁artéria	-11.9929
1.5	-11.9929
▁lgbt	-11.9939
▁meneses	-11.9939
▁discute	-11.9939
▁afastamento	-11.9948
branco	-11.9952
▁diminuí	-11.996
▁lloyd	-11.996
▁admitido	-11.996
▁iraniano	-11.996
▁incidência	-11.996
▁renault	-11.996
▁criatividade	-11.9962
▁apropriada	-11.9964
mentári	-11.9967
▁humanista	-11.9968
▁trazida	-11.997
▁dormir	-11.997
▁computacional	-11.9971
▁alencar	-11.9971
▁calibre	-11.9972
▁genérico	-11.9972
▁detectar	-11.9972
▁dominicana	-11.9973
▁vegeta	-11.9976
strange	-11.9981
enciclopédia	-11.9982
▁antagonista	-11.9982
▁(2000)	-11.9983
▁kyle	-11.999
▁nickelodeon	-11.9993
▁protecção	-11.9993
▁paterna	-11.9994
▁dispersão	-12.0004
completo	-12.0007
▁albânia	-12.0014
▁vassalo	-12.0015
pérola	-12.0026
▁prestou	-12.0027
▁angular	-12.0029
▁larvas	-12.003
▁atlas	-12.0035
▁century	-12.0036
▁medalhista	-12.0036
▁provisória	-12.0036
▁suicida	-12.0037
▁implantado	-12.0042
streaming	-12.0057
▁cavidade	-12.0058
▁repente	-12.0058
▁arrenda	-12.0061
século	-12.0068
▁posicionamento	-12.0068
▁inesperada	-12.0069
▁silvestre	-12.0069
▁knight	-12.0073
▁mescla	-12.0073
▁carnavalesco	-12.0082
▁definições	-12.0082
▁orações	-12.0083
▁veiga	-12.0083
~	-12.0091
ă	-12.0091
▁financiado	-12.0091
▁eterno	-12.0093
▁hunter	-12.0099
▁térreo	-12.0102
▁mozart	-12.0102
▁redator	-12.0102
▁fiscalização	-12.0106
▁esqueleto	-12.0113
▁balanço	-12.0113
▁(1999)	-12.0113
muçulmano	-12.0113
▁pânico	-12.0119
▁jessica	-12.0124
▁suspense	-12.0124
▁contingente	-12.0135
▁bonifácio	-12.0146
▁dígito	-12.0146
▁vácuo	-12.0157
▁office	-12.0158
▁cinematográfico	-12.0158
ésima	-12.0159
national	-12.0165
▁câmbio	-12.0168
▁desfruta	-12.0168
▁subterrânea	-12.0168
▁galega	-12.0173
▁forest	-12.0175
▁potter	-12.0177
fraternidade	-12.0179
▁presidenciais	-12.0179
▁amazônica	-12.0179
▁palmeira	-12.0193
▁perfum	-12.0194
▁reunida	-12.0199
▁thing	-12.0201
▁homônima	-12.0201
▁brooklyn	-12.0201
▁havaí	-12.0201
▁bolonha	-12.0201
source	-12.0202
estabelecimentos	-12.021
▁sucessivas	-12.0212
▁reunia	-12.0218
agri	-12.0228
▁agradável	-12.0234
▁panorama	-12.0234
▁retábulo	-12.0234
▁conforto	-12.0234
▁acontecido	-12.0257
▁triunfa	-12.0257
▁residia	-12.0257
caderno	-12.0259
▁holmes	-12.0261
▁cecília	-12.0268
▁norueguês	-12.0268
quiet	-12.0268
▁bueno	-12.0274
κ	-12.0279
▁curioso	-12.028
▁basílio	-12.0281
▁edson	-12.0281
▁vestindo	-12.0283
▁caldeira	-12.0285
▁moisés	-12.029
▁jerônimo	-12.029
▁expoente	-12.029
▁rendição	-12.029
▁represa	-12.0291
venture	-12.0298
▁juvenis	-12.0301
▁telejornal	-12.0303
▁académica	-12.0312
▁tecladista	-12.0312
▁réplica	-12.0313
▁infanta	-12.032
▁ramifica	-12.0324
cráti	-12.0331
▁austro	-12.0333
▁colecionador	-12.0335
▁degradação	-12.0336
▁aurora	-12.0337
encontro	-12.0339
onsideravelmente	-12.0342
▁rondônia	-12.0346
β	-12.0346
▁produtividade	-12.0346
▁imaginário	-12.0347
▁territoriais	-12.0357
▁levantou	-12.0357
▁standard	-12.0369
▁cedeu	-12.037
image	-12.0372
empresta	-12.0375
evolução	-12.0379
▁falhou	-12.0382
▁vanessa	-12.0382
▁apanha	-12.0389
▁cuiabá	-12.0391
▁rangers	-12.0391
▁kansas	-12.0392
▁garrafa	-12.0392
▁vincent	-12.0393
cloreto	-12.0396
língua	-12.0401
▁juventus	-12.0402
▁recinto	-12.0403
▁bovino	-12.0403
▁minério	-12.0404
▁voice	-12.0405
▁preferiu	-12.0408
▁craig	-12.0408
▁interessou	-12.0414
príncipe	-12.0416
instrumentista	-12.0421
▁fornecida	-12.0425
▁arraial	-12.0425
▁mouros	-12.0428
▁detecção	-12.043
▁decidida	-12.0432
▁gilbert	-12.0435
▁alfabetização	-12.0436
▁insuficiência	-12.0436
▁aperfeiçoamento	-12.044
▁autobiografia	-12.0448
▁preferido	-12.0448
▁subconjunto	-12.0459
[...]
